{
  "version": "1.0",
  "truncation": null,
  "padding": null,
  "added_tokens": [
    {
      "id": 0,
      "content": "<unk>",
      "single_word": false,
      "lstrip": false,
      "rstrip": false,
      "normalized": false,
      "special": true
    },
    {
      "id": 1,
      "content": "<pad>",
      "single_word": false,
      "lstrip": false,
      "rstrip": false,
      "normalized": false,
      "special": true
    },
    {
      "id": 2,
      "content": "<bos>",
      "single_word": false,
      "lstrip": false,
      "rstrip": false,
      "normalized": false,
      "special": true
    },
    {
      "id": 3,
      "content": "<eos>",
      "single_word": false,
      "lstrip": false,
      "rstrip": false,
      "normalized": false,
      "special": true
    }
  ],
  "normalizer": null,
  "pre_tokenizer": {
    "type": "ByteLevel",
    "add_prefix_space": false,
    "trim_offsets": true,
    "use_regex": true
  },
  "post_processor": {
    "type": "TemplateProcessing",
    "single": [
      {
        "SpecialToken": {
          "id": "<bos>",
          "type_id": 0
        }
      },
      {
        "Sequence": {
          "id": "A",
          "type_id": 0
        }
      },
      {
        "SpecialToken": {
          "id": "<eos>",
          "type_id": 0
        }
      }
    ],
    "pair": [
      {
        "Sequence": {
          "id": "A",
          "type_id": 0
        }
      },
      {
        "Sequence": {
          "id": "B",
          "type_id": 1
        }
      }
    ],
    "special_tokens": {
      "<bos>": {
        "id": "<bos>",
        "ids": [
          2
        ],
        "tokens": [
          "<bos>"
        ]
      },
      "<eos>": {
        "id": "<eos>",
        "ids": [
          3
        ],
        "tokens": [
          "<eos>"
        ]
      }
    }
  },
  "decoder": {
    "type": "ByteLevel",
    "add_prefix_space": true,
    "trim_offsets": true,
    "use_regex": true
  },
  "model": {
    "type": "BPE",
    "dropout": null,
    "unk_token": "<unk>",
    "continuing_subword_prefix": null,
    "end_of_word_suffix": null,
    "fuse_unk": false,
    "byte_fallback": false,
    "ignore_merges": false,
    "vocab": {
      "<unk>": 0,
      "<pad>": 1,
      "<bos>": 2,
      "<eos>": 3,
      "!": 4,
      "\"": 5,
      "#": 6,
      "$": 7,
      "%": 8,
      "&": 9,
      "'": 10,
      "(": 11,
      ")": 12,
      "*": 13,
      "+": 14,
      ",": 15,
      "-": 16,
      ".": 17,
      "/": 18,
      "0": 19,
      "1": 20,
      "2": 21,
      "3": 22,
      "4": 23,
      "5": 24,
      "6": 25,
      "7": 26,
      "8": 27,
      "9": 28,
      ":": 29,
      ";": 30,
      "<": 31,
      "=": 32,
      ">": 33,
      "?": 34,
      "@": 35,
      "A": 36,
      "B": 37,
      "C": 38,
      "D": 39,
      "E": 40,
      "F": 41,
      "G": 42,
      "H": 43,
      "I": 44,
      "J": 45,
      "K": 46,
      "L": 47,
      "M": 48,
      "N": 49,
      "O": 50,
      "P": 51,
      "Q": 52,
      "R": 53,
      "S": 54,
      "T": 55,
      "U": 56,
      "V": 57,
      "W": 58,
      "X": 59,
      "Y": 60,
      "Z": 61,
      "[": 62,
      "\\": 63,
      "]": 64,
      "^": 65,
      "_": 66,
      "`": 67,
      "a": 68,
      "b": 69,
      "c": 70,
      "d": 71,
      "e": 72,
      "f": 73,
      "g": 74,
      "h": 75,
      "i": 76,
      "j": 77,
      "k": 78,
      "l": 79,
      "m": 80,
      "n": 81,
      "o": 82,
      "p": 83,
      "q": 84,
      "r": 85,
      "s": 86,
      "t": 87,
      "u": 88,
      "v": 89,
      "w": 90,
      "x": 91,
      "y": 92,
      "z": 93,
      "{": 94,
      "|": 95,
      "}": 96,
      "~": 97,
      "¡": 98,
      "¢": 99,
      "£": 100,
      "¤": 101,
      "¥": 102,
      "¦": 103,
      "§": 104,
      "¨": 105,
      "©": 106,
      "ª": 107,
      "«": 108,
      "¬": 109,
      "®": 110,
      "¯": 111,
      "°": 112,
      "±": 113,
      "²": 114,
      "³": 115,
      "´": 116,
      "µ": 117,
      "¶": 118,
      "·": 119,
      "¸": 120,
      "¹": 121,
      "º": 122,
      "»": 123,
      "¼": 124,
      "½": 125,
      "¾": 126,
      "¿": 127,
      "À": 128,
      "Á": 129,
      "Â": 130,
      "Ã": 131,
      "Ä": 132,
      "Å": 133,
      "Æ": 134,
      "Ç": 135,
      "È": 136,
      "É": 137,
      "Ê": 138,
      "Ë": 139,
      "Ì": 140,
      "Í": 141,
      "Î": 142,
      "Ï": 143,
      "Ð": 144,
      "Ñ": 145,
      "Ò": 146,
      "Ó": 147,
      "Ô": 148,
      "Õ": 149,
      "Ö": 150,
      "×": 151,
      "Ø": 152,
      "Ù": 153,
      "Ú": 154,
      "Û": 155,
      "Ü": 156,
      "Ý": 157,
      "Þ": 158,
      "ß": 159,
      "à": 160,
      "á": 161,
      "â": 162,
      "ã": 163,
      "ä": 164,
      "å": 165,
      "æ": 166,
      "ç": 167,
      "è": 168,
      "é": 169,
      "ê": 170,
      "ë": 171,
      "ì": 172,
      "í": 173,
      "î": 174,
      "ï": 175,
      "ð": 176,
      "ñ": 177,
      "ò": 178,
      "ó": 179,
      "ô": 180,
      "õ": 181,
      "ö": 182,
      "÷": 183,
      "ø": 184,
      "ù": 185,
      "ú": 186,
      "û": 187,
      "ü": 188,
      "ý": 189,
      "þ": 190,
      "ÿ": 191,
      "Ā": 192,
      "ā": 193,
      "Ă": 194,
      "ă": 195,
      "Ą": 196,
      "ą": 197,
      "Ć": 198,
      "ć": 199,
      "Ĉ": 200,
      "ĉ": 201,
      "Ċ": 202,
      "ċ": 203,
      "Č": 204,
      "č": 205,
      "Ď": 206,
      "ď": 207,
      "Đ": 208,
      "đ": 209,
      "Ē": 210,
      "ē": 211,
      "Ĕ": 212,
      "ĕ": 213,
      "Ė": 214,
      "ė": 215,
      "Ę": 216,
      "ę": 217,
      "Ě": 218,
      "ě": 219,
      "Ĝ": 220,
      "ĝ": 221,
      "Ğ": 222,
      "ğ": 223,
      "Ġ": 224,
      "ġ": 225,
      "Ģ": 226,
      "ģ": 227,
      "Ĥ": 228,
      "ĥ": 229,
      "Ħ": 230,
      "ħ": 231,
      "Ĩ": 232,
      "ĩ": 233,
      "Ī": 234,
      "ī": 235,
      "Ĭ": 236,
      "ĭ": 237,
      "Į": 238,
      "į": 239,
      "İ": 240,
      "ı": 241,
      "Ĳ": 242,
      "ĳ": 243,
      "Ĵ": 244,
      "ĵ": 245,
      "Ķ": 246,
      "ķ": 247,
      "ĸ": 248,
      "Ĺ": 249,
      "ĺ": 250,
      "Ļ": 251,
      "ļ": 252,
      "Ľ": 253,
      "ľ": 254,
      "Ŀ": 255,
      "ŀ": 256,
      "Ł": 257,
      "ł": 258,
      "Ń": 259,
      "ĠÐ": 260,
      "Ð¾": 261,
      "Ð°": 262,
      "Ðµ": 263,
      "ÑĤ": 264,
      "Ð¸": 265,
      "Ñģ": 266,
      "Ð¾Ð": 267,
      "Ð½": 268,
      "ÑĢ": 269,
      "Ð»": 270,
      "Ñĥ": 271,
      "Ð°Ð": 272,
      "Ñı": 273,
      "ÐµÐ": 274,
      "ÑĮ": 275,
      "Ñĭ": 276,
      "ĠÑģ": 277,
      "ĠÐ¿": 278,
      "ĠÐ½": 279,
      "ĠÐ²": 280,
      "Ðº": 281,
      "Ñĩ": 282,
      "Ð²": 283,
      "ĠÐ¾": 284,
      "ĠÐ¸": 285,
      "Ð´": 286,
      "ĠÐº": 287,
      "Ð¼": 288,
      "Ð°Ð»": 289,
      "ÑĤÐ¾": 290,
      "Ð¾Ð²": 291,
      "ÑĪ": 292,
      "Ñħ": 293,
      "ÑģÑĤ": 294,
      "ĠÐ´": 295,
      "ÐµÐ½": 296,
      "ĠÐ±": 297,
      "ĠÑĤ": 298,
      "ĠÐ¼": 299,
      "Ð¾Ð»": 300,
      "ÐµÑĢ": 301,
      "³Ð¾": 302,
      "ÐµÐ»": 303,
      "Ñİ": 304,
      "Ð¾Ð¼": 305,
      "ĠÑĩ": 306,
      "Ð½Ð¾": 307,
      "ĠÐ¿ÑĢ": 308,
      "Ð¸Ð»": 309,
      "ÐµÑĤ": 310,
      "ÑĥÐ": 311,
      "ĠÐ·": 312,
      "Ð°Ðº": 313,
      "ÑĤÑĮ": 314,
      "ĠÐ½Ðµ": 315,
      "ĠÑĢ": 316,
      "Ð¾Ð´": 317,
      "ĠÐµ": 318,
      "ĠÐ½Ð°": 319,
      "Ð¾Ð¹": 320,
      "Ð¸Ð": 321,
      "Ð°Ð·": 322,
      "ĠÐ³": 323,
      "Ð½Ð°": 324,
      "ÑģÑı": 325,
      "Ð¾ÑĢ": 326,
      "ÐµÐ¼": 327,
      "Ð¿": 328,
      "Ð°Ð½": 329,
      "ĠÑ": 330,
      "Ð°Ð¼": 331,
      "Ð¾Ñģ": 332,
      "ĠÐ»": 333,
      "Ġ-": 334,
      "ĠÑĥ": 335,
      "Ð½Ñĭ": 336,
      "Ð°Ñģ": 337,
      "Ð°Ð²": 338,
      "Ð±": 339,
      "ÑĨ": 340,
      "Ð¸Ð½": 341,
      "Ð¾ÑĤ": 342,
      "Ð·": 343,
      "ÐµÐ´": 344,
      "ĠÐ±Ñĭ": 345,
      "Ð¾Ð½": 346,
      "ĠÑĩÑĤÐ¾": 347,
      "Ñī": 348,
      "Ð¸ÑĤ": 349,
      "Ð°ÑĢ": 350,
      "Ð¸Ð²": 351,
      "ĠÐ¾Ð½": 352,
      "ĠÐ°": 353,
      "Ð¸Ð¼": 354,
      "Ð¾Ð³": 355,
      "ÑģÐº": 356,
      "ĠÑı": 357,
      "ĠÑį": 358,
      "ĠÐ¾ÑĤ": 359,
      "ĠÐ¶": 360,
      "ĠÑģÑĤ": 361,
      "Ð°Ð´": 362,
      "Ð°ÑĤ": 363,
      "Ð¾Ð±": 364,
      "ÐµÐ¹": 365,
      "Ð¹": 366,
      "Ð¸Ðº": 367,
      "Ð¾Ð³Ð¾": 368,
      "Ð°Ñı": 369,
      "Ð°ÑĤÑĮ": 370,
      "ĠÐºÐ°Ðº": 371,
      "ÐµÐ²": 372,
      "ĠÐ¿Ð¾": 373,
      "Ð¾Ðº": 374,
      "ĠÐ²Ñģ": 375,
      "Ð¾Ð¶": 376,
      "ÑģÑĮ": 377,
      "ĠÐ²Ñĭ": 378,
      "Ð³": 379,
      "Ð½Ñĥ": 380,
      "Ð»Ð¸": 381,
      "Ð¸Ðµ": 382,
      "ÑĤÐ¾ÑĢ": 383,
      "Ð¾Ð»ÑĮ": 384,
      "ÑĥÐ´": 385,
      "ÑģÑĤÐ²": 386,
      "Ð³Ð¾": 387,
      "ĠÑħ": 388,
      "ÑĥÐ¶": 389,
      "ĠÑģÐº": 390,
      "Ġ--": 391,
      "ĠÑģÐ²": 392,
      "ĠÐ¾Ð±": 393,
      "Ð¸Ð´": 394,
      "Ð¸Ñħ": 395,
      "ĠÐ±ÑĭÐ»": 396,
      "Ð¸Ñĩ": 397,
      "ÐµÐ·": 398,
      "Ð¶": 399,
      "Ð¸Ð¹": 400,
      "ĠÐµÐ³Ð¾": 401,
      "ÐµÐ³Ð¾": 402,
      "Ð»Ñı": 403,
      "ÐµÐ±": 404,
      "ÐµÐº": 405,
      "ÐºÐ¾": 406,
      "ĠÐ¿Ð¾Ð´": 407,
      "Ð°Ð»Ð°": 408,
      "Ð¸Ñı": 409,
      "Ð°Ð¶": 410,
      "Ð¸ÑĤÑĮ": 411,
      "ÑĬ": 412,
      "ĠÑģÐ»": 413,
      "Ð¾Ð·": 414,
      "ĠÐ½Ð¾": 415,
      "ĠÑĤÐ°Ðº": 416,
      "ÑĥÐ³": 417,
      "ĠÐ¸Ð·": 418,
      "ÐµÐ»ÑĮ": 419,
      "Ð´Ð°": 420,
      "ÐµÐ¿": 421,
      "ĠÐ·Ð°": 422,
      "Ð°Ð»Ð¸": 423,
      "ÐµÑģ": 424,
      "ĠÑįÑĤÐ¾": 425,
      "ÐµÑĩ": 426,
      "ĠÑĢÐ°Ð·": 427,
      "ĠÐºÑĢ": 428,
      "ÐºÐ°": 429,
      "ÐµÑģÑĤ": 430,
      "ĠÑĪ": 431,
      "ÑĢÐ°": 432,
      "ĠÐ²ÑģÐµ": 433,
      "ĠÐ¾Ð½Ð°": 434,
      "ÑĥÑĤ": 435,
      "ĠÑĤÐ¾": 436,
      "Ð°Ð¼Ð¸": 437,
      "Ð½Ðµ": 438,
      "ĠÐºÐ¾": 439,
      "ÑĥÐ¼": 440,
      "Ð¾Ð²Ð¾ÑĢ": 441,
      "Ð¸ÑĨ": 442,
      "Ð»Ð°": 443,
      "ÐµÐ½ÑĮ": 444,
      "Ð¾Ð¿": 445,
      "ĠÐ¿ÐµÑĢ": 446,
      "ĠÑįÑĤ": 447,
      "ÐµÑĪ": 448,
      "ÐºÐ¸": 449,
      "Ð¾ÑģÑĤ": 450,
      "ÑĭÐ²": 451,
      "Ð¸Ð·": 452,
      "ÐµÐ¶": 453,
      "Ð½ÑĭÐ¹": 454,
      "Ð°Ð¿": 455,
      "ÑĭÐ¹": 456,
      "ĠÐ¾Ð´": 457,
      "Ð¾Ñĩ": 458,
      "Ð½Ð¾Ð¹": 459,
      "ĠÑģÐºÐ°Ð·": 460,
      "ĠÑģÐ¿": 461,
      "ĠÑģÐ²Ð¾": 462,
      "ÑĥÑĪ": 463,
      "ÑĥÑİ": 464,
      "ĠÐ³Ð¾": 465,
      "Ð°ÑģÑĮ": 466,
      "Ð½Ñı": 467,
      "Ð½ÑĭÐ¼": 468,
      "ÑĥÑĩ": 469,
      "ÐµÐ½Ð½Ð¾": 470,
      "ĠÐ¿Ð¾Ð»": 471,
      "ÑīÐµ": 472,
      "ÑĦ": 473,
      "ÑĥÐ±": 474,
      "ĠÐºÐ¾ÑĤÐ¾ÑĢ": 475,
      "ĠÑģÐ°Ð¼": 476,
      "Ð¾Ð»ÑĮÐºÐ¾": 477,
      "Ð°Ð±": 478,
      "ÐºÑĥ": 479,
      "ÑĢÑĥÐ³": 480,
      "ÑĥÐ¿": 481,
      "ĠÐ¿Ð¾Ñģ": 482,
      "Ð°Ð¹": 483,
      "Ð¸ÑĢ": 484,
      "Ð¾Ð³Ð´Ð°": 485,
      "Ð¸Ð»Ð°": 486,
      "Ð¾ÑĪ": 487,
      "ĠÐµÐµ": 488,
      "ÐµÐ³": 489,
      "ĠÑĦ": 490,
      "ĠÐ¶Ðµ": 491,
      "ĠÐ»Ñİ": 492,
      "ÑģÑĤÑĮ": 493,
      "Ð¸Ð»Ð¸": 494,
      "ĠÐ±ÑĭÐ»Ð¾": 495,
      "Ð½Ð¾Ð³Ð¾": 496,
      "Ð°Ð³": 497,
      "ĠÐ´Ð²": 498,
      "Ð¾Ð¼Ñĥ": 499,
      "Ð¸Ñģ": 500,
      "ĠÑĥÐ¶": 501,
      "ÑĭÐ¼": 502,
      "ĠÐ³Ð»": 503,
      "ĠÑĤÑĢ": 504,
      "čĊ": 505,
      "ĠÑģÐ¼": 506,
      "Ð¾Ðµ": 507,
      "Ð°Ñİ": 508,
      "Ð½ÑĥÐ»": 509,
      "Ð½ÑĭÐµ": 510,
      "ĠÐ³ÑĢ": 511,
      "ĠÐ³Ð¾Ð²Ð¾ÑĢ": 512,
      "Ð¾ÑģÑĮ": 513,
      "Ð°Ð»ÑĮ": 514,
      "ÑıÑĤ": 515,
      "Ð°Ñħ": 516,
      "ĠÑĢÑĥ": 517,
      "ÑĥÑĢ": 518,
      "Ð°ÐµÑĤ": 519,
      "ĠÑĢÐ°Ñģ": 520,
      "ÑĭÐµ": 521,
      "ÐµÐ½Ñı": 522,
      "ĠÐ³Ð¾Ð»": 523,
      "ĠÑĤÑĭ": 524,
      "ÐµÐ½Ð¸": 525,
      "Ð¼Ñĥ": 526,
      "ÑģÑĤÑĢ": 527,
      "Ð¸Ð»ÑģÑı": 528,
      "ÑĭÑħ": 529,
      "Ð¸ÑĪ": 530,
      "ĠÐ²Ð·": 531,
      "ĠÐ¼ÐµÐ½Ñı": 532,
      "ĠÐ±ÑĥÐ´": 533,
      "Ð°Ð»ÑģÑı": 534,
      "ĠÐ¿Ð¾ÑĤ": 535,
      "ĠÐ¼Ð½Ðµ": 536,
      "Ð¸ÑĤÐµÐ»ÑĮ": 537,
      "Ð½ÑĭÑħ": 538,
      "Ð½Ð¸Ðº": 539,
      "ÐµÐ½Ð¸Ðµ": 540,
      "ĠÑĤÐ¾Ð»ÑĮÐºÐ¾": 541,
      "Ð¾Ð²Ð°": 542,
      "ÑħÐ¾Ð´": 543,
      "ÑģÐ¿": 544,
      "Ð½Ð°Ñı": 545,
      "ĠÑģÐµÐ±": 546,
      "Ð°ÑĪ": 547,
      "ÐµÐ½Ð¸Ñı": 548,
      "ÑĢÐ¾Ñģ": 549,
      "ĠÐµÐ¼Ñĥ": 550,
      "ĠÐ´Ð°": 551,
      "Ð´Ðµ": 552,
      "ĠÐ²Ð¸Ð´": 553,
      "ĠÐ¿Ð¾Ðº": 554,
      "ÐµÑĢÑĮ": 555,
      "ĠÐ½Ð°Ð´": 556,
      "Ð½Ð¾Ðµ": 557,
      "Ð¸Ð±": 558,
      "Ð¸Ð½Ð°": 559,
      "ĠÐ¿Ð»": 560,
      "ĠÐµÑīÐµ": 561,
      "ÐµÐ»Ð¾Ð²": 562,
      "ĠÐ¾Ð¿": 563,
      "ĠÐ¼Ñĭ": 564,
      "ĠÑģÐºÐ°Ð·Ð°Ð»": 565,
      "Ð¸Ð³": 566,
      "ĠÐ¸Ð¼": 567,
      "ĠÐ¿ÑĢÐ¾": 568,
      "ÑĪÐµ": 569,
      "ĠÐ¿ÑĢÐµÐ´": 570,
      "ĠÐ´ÑĢÑĥÐ³": 571,
      "ĠÐ·Ð½Ð°": 572,
      "ĠÐ½Ð¸Ðº": 573,
      "ĠÐ³Ð¾ÑĢ": 574,
      "ÑıÑĤÑĮ": 575,
      "ÐµÐ¼Ñĥ": 576,
      "ÑģÑĤÐ°Ð²": 577,
      "ÑĥÑħ": 578,
      "ĠÐ¾Ñĩ": 579,
      "ÑģÑĤÐ¸": 580,
      "ĠÐºÐ¾Ð³Ð´Ð°": 581,
      "ĠÐ´ÐµÐ»": 582,
      "ÑĢÐ°Ð²": 583,
      "ÑıÐ»": 584,
      "ĠÑģÑĤÐ°ÑĢ": 585,
      "ÐµÐ»Ð¸": 586,
      "ĠÐ±Ð»": 587,
      "ĠÐ³Ð»Ð°Ð·": 588,
      "ĠÐºÐ¾Ð½": 589,
      "ĠÑĨ": 590,
      "ĠÐ²Ð¾Ð·": 591,
      "ĠÑĥÐ¶Ðµ": 592,
      "ÑĢÐµÐ¼": 593,
      "ĠÐ»ÑİÐ±": 594,
      "ÑĤÐ¸": 595,
      "ĠÑĩÐµÑĢ": 596,
      "ĠÐ¾ÑĤÐ²": 597,
      "ÑĥÐ·": 598,
      "ÑĥÐ²": 599,
      "ĠÑģÐ¾": 600,
      "Ð½Ð¸": 601,
      "Ð¸ÑĤÐµ": 602,
      "ĠÐ²Ð¾ÑĤ": 603,
      "ÑĤÐµ": 604,
      "ĠÐ¾Ñģ": 605,
      "ĠÐ¼Ð¾": 606,
      "ÐµÑĨ": 607,
      "Ð°Ð½Ð¾Ð²": 608,
      "ĠÐ¼Ð¾Ð»": 609,
      "Ð¾ÑĤÑĢ": 610,
      "ĠÐ²ÐµÑĢ": 611,
      "ĠÐ¼Ð¾Ð¶": 612,
      "ĠÐ±ÐµÐ·": 613,
      "ĠÐ¿Ð¾ÑģÐ»": 614,
      "ÑĢÐ°Ð½": 615,
      "ÐºÐ¾Ð¹": 616,
      "ĠÑĩÐµÐ»Ð¾Ð²": 617,
      "ĠÑĩÑĤ": 618,
      "ÐºÐµ": 619,
      "ÐµÑģÐº": 620,
      "Ð°Ð»Ð¾": 621,
      "ĠÐ¼Ð¾Ð³": 622,
      "Ð¸ÑģÑĤ": 623,
      "ĠÐ¾Ðº": 624,
      "ÐµÑħ": 625,
      "Ð¸Ð¶": 626,
      "Ð»Ð¸Ð²": 627,
      "ĠÐ»Ð¸ÑĨ": 628,
      "ÑĥÐ»": 629,
      "ĠÑĤÐµÐ¿": 630,
      "ĠÐ²Ð¾": 631,
      "ÑĭÑĪ": 632,
      "ĠÑĩÑĤÐ¾Ð±": 633,
      "ĠÐ±Ð¾Ð»ÑĮ": 634,
      "ÐµÐ»Ð°": 635,
      "ÐºÐ¾Ð²": 636,
      "Ð¸Ð¼Ð¸": 637,
      "Ð¾Ð±ÑĢ": 638,
      "ĠÐ´Ð¾Ð»": 639,
      "ĠÐ½Ð¸": 640,
      "ĠÐ´Ð¾": 641,
      "ÑĮÑı": 642,
      "ĠÐ´Ð»Ñı": 643,
      "Ð»Ñİ": 644,
      "ĠÐ¾Ð½Ð¸": 645,
      "ĠÐ½ÐµÐ³Ð¾": 646,
      "ĠÐ¸Ñħ": 647,
      "ÑģÐ»": 648,
      "ĠÑģÐ¾Ð²": 649,
      "ĠÐ¿Ð¾Ñĩ": 650,
      "ĠÑģÐµÑĢ": 651,
      "ĠÐ½Ð°Ð¿": 652,
      "Ð½ÑĥÑİ": 653,
      "Ð»ÑıÐ´": 654,
      "Ð¸Ð¸": 655,
      "ĠÐ±ÑĢ": 656,
      "ĠÑĩÐµÐ»Ð¾Ð²ÐµÐº": 657,
      "ĠÐ¿Ð¾ÑĢ": 658,
      "ÑģÐ»Ð¸": 659,
      "ĠÑĤÐµÐ±": 660,
      "ĠÐ·Ð°Ð¼": 661,
      "ÐµÐµ": 662,
      "ĠÑħÐ¾ÑĤ": 663,
      "ĠÑĤÐµÐ¿ÐµÑĢÑĮ": 664,
      "ĠÑĥÐ´": 665,
      "Ð¸ÑģÑĮ": 666,
      "ĠÐ¿Ð¾Ð²": 667,
      "Ð½Ð¾Ð²": 668,
      "ĠÐ¿Ð¾Ð½": 669,
      "ĠÐ²Ð°Ñģ": 670,
      "Ð²ÐµÑĢ": 671,
      "Ð½Ð¾Ð¼": 672,
      "Ð°ÑıÑģÑĮ": 673,
      "ĠÐ¿ÑĢÐ¸": 674,
      "Ð°Ð»Ð¾ÑģÑĮ": 675,
      "ÐµÑĪÑĮ": 676,
      "ĠÐ¿Ð¾Ð¼": 677,
      "ĠÐ¶ÐµÐ½": 678,
      "ÑĥÐ²ÑģÑĤÐ²": 679,
      "ÐµÑĤÑģÑı": 680,
      "ĠÑģÐ¾Ð±": 681,
      "ĠÐ½ÐµÑĤ": 682,
      "ĠÐ²Ð´": 683,
      "ÑĥÑģÑĤ": 684,
      "Ð°Ð²ÑĪ": 685,
      "ĠÐ¾ÑĩÐµÐ½ÑĮ": 686,
      "ÑĩÐ°": 687,
      "ĠÐºÐ¾Ð¼": 688,
      "Ð¸Ð¿": 689,
      "Ð´Ñĥ": 690,
      "ĠÐ¸Ð»Ð¸": 691,
      "ĠÐ°Ð½": 692,
      "Ð°Ð¶Ðµ": 693,
      "ĠÐ»Ð¸": 694,
      "ĠÑĤÐµÐ¼": 695,
      "ĠÐ±ÑĭÑĤÑĮ": 696,
      "ĠÑģÐµÐ±Ñı": 697,
      "Ð»ÐµÐ½": 698,
      "Ð»Ð¾": 699,
      "ĠÐ½Ð°Ñģ": 700,
      "ÑĭÑĤ": 701,
      "Ð¸Ð»Ð°ÑģÑĮ": 702,
      "ĠÐ´ÑĢ": 703,
      "ĠÐ±ÑĭÐ»Ð°": 704,
      "ĠÐ´Ð°Ð¶Ðµ": 705,
      "ĠÐ»ÑİÐ´": 706,
      "Ð°Ð»Ð¸ÑģÑĮ": 707,
      "Ð°Ð»Ð°ÑģÑĮ": 708,
      "Ġ(": 709,
      "ÐµÑĤÐµ": 710,
      "Ð°ÑĤÑĮÑģÑı": 711,
      "ÐµÑĤÑĮ": 712,
      "ĠÐ²Ð¿": 713,
      "ÐºÐ¾Ð¼": 714,
      "ĠÐ²ÑĢÐµÐ¼": 715,
      "ĠÑĥÐ¼": 716,
      "Ð´ÑĢ": 717,
      "Ġ.": 718,
      "ÑıÐ¼": 719,
      "ĠÐ½Ð°Ñĩ": 720,
      "Ð¾Ñİ": 721,
      "ĠÐ´ÑĥÐ¼": 722,
      "ĠÐ³Ð¾Ð»Ð¾Ð²": 723,
      "ÑĮÑİ": 724,
      "ĠÐ´Ð¾Ð¼": 725,
      "ĠÐµÑģÐ»Ð¸": 726,
      "ĠÐ½ÐµÐ¿": 727,
      "Ð¸ÑĤÐµÐ»ÑĮÐ½Ð¾": 728,
      "Ð»Ñĭ": 729,
      "Ñĳ": 730,
      "ĠÐ¾ÑģÑĤ": 731,
      "ĠÐµÐ¹": 732,
      "ĠÑĩÐµÐ¼": 733,
      "ĠÐºÐ¾ÑĢ": 734,
      "ĠÐ²Ð¾Ñģ": 735,
      "Ġ,": 736,
      "ĠÐ½Ð°ÑĪ": 737,
      "ĠÐºÐ°Ð·": 738,
      "ĠÐ¿ÐµÑĢÐµÐ´": 739,
      "ĠÐºÐ¾Ð»": 740,
      "Ð¸Ð²ÑĪ": 741,
      "ĠÐ·Ð°Ð¿": 742,
      "ÐºÑĢ": 743,
      "ĠÐ½Ð¸Ñĩ": 744,
      "ĠÑģÑĤÐ¾": 745,
      "ĠÐ·Ð½": 746,
      "ÑĭÐ»": 747,
      "ĠÑĩÑĤÐ¾Ð±Ñĭ": 748,
      "ÑĥÐ´ÑĮ": 749,
      "ÑĤÑĢ": 750,
      "ĠÐ¿ÑĢÐ°Ð²": 751,
      "Ð¸ÑĤÑĮÑģÑı": 752,
      "ĠÐ±Ð¾Ð»": 753,
      "Ð¾Ñħ": 754,
      "ĠÐ·Ð°Ðº": 755,
      "Ð¸Ð»ÑĮ": 756,
      "Ð½Ð¸Ð¼": 757,
      "Ð½ÑĭÐ¼Ð¸": 758,
      "--": 759,
      "ÑģÑĤÐ²Ð¾": 760,
      "ÑĢÐ°Ð·": 761,
      "ĠÐºÐ»": 762,
      "ÑĥÐ´Ð°": 763,
      "ĠÐ½ÐµÐ¼": 764,
      "ĠÑĥÐ²": 765,
      "ĠÐ¼Ð°ÑĢ": 766,
      "ĠÐ²Ð´ÑĢÑĥÐ³": 767,
      "ÑıÐ´": 768,
      "ĠÐ°Ð»": 769,
      "Ð¸Ð½Ñĥ": 770,
      "ĠÑĩÑĥÐ²ÑģÑĤÐ²": 771,
      "ĠÑģÐ»Ð¾Ð²": 772,
      "ĠÐ²Ð¾Ð»": 773,
      "ĠÐ±ÐµÑģ": 774,
      "ĠÐºÑĢÐ°Ñģ": 775,
      "ĠÐ¸Ð²": 776,
      "Ð´ÐµÐ»": 777,
      "Ð¾Ð¶Ðµ": 778,
      "Ð°ÑĤÐµÐ»ÑĮ": 779,
      "ĠÐ¼Ð¾Ð¶ÐµÑĤ": 780,
      "ĠÐºÐ½Ñı": 781,
      "ÐµÑī": 782,
      "ĠÐ½Ñĥ": 783,
      "ÐµÑĢÐ¶": 784,
      "Ð½ÐµÐ¹": 785,
      "ĠÐ¿ÑĢÐ¾Ñģ": 786,
      "ĠÐ±ÑĭÐ»Ð¸": 787,
      "ĠÐ¿ÐµÑĤ": 788,
      "ĠÐ¶Ð¸Ð·": 789,
      "ÑĨÐ°": 790,
      "ĠÐ²Ð°Ð¼": 791,
      "ĠÐºÐ°ÑĢ": 792,
      "ĠÐ¿Ð¾Ð¿": 793,
      "Ð¸Ð»Ð¸ÑģÑĮ": 794,
      "ĠÑĤÐ¾Ð³Ð¾": 795,
      "ÑıÐ½": 796,
      "Ð°Ñĩ": 797,
      "ÑĢÐµÐ´": 798,
      "ĠÑģÐµÐ±Ðµ": 799,
      "ĠÐ¿Ð¾Ð·": 800,
      "Ð°Ð·ÑĭÐ²": 801,
      "Ð°ÑİÑĤ": 802,
      "Ð½Ð¾ÑģÑĤÑĮ": 803,
      "ĠÐ½Ð°Ðº": 804,
      "ĠÐ²Ð°ÑĪ": 805,
      "ĠÐ³Ð¾Ð»Ð¾Ñģ": 806,
      "Ð¾ÑĢÐ¾ÑĪ": 807,
      "ĠÑĥÐ»Ñĭ": 808,
      "ĠÑĥÐ»ÑĭÐ±": 809,
      "ÑĥÑģ": 810,
      "ĠÐ½Ð¸ÑĩÐµÐ³Ð¾": 811,
      "Ð½Ð¾ÑģÑĤÐ¸": 812,
      "ĠÑģÑĤÐ¾Ð»": 813,
      "ÑıÐ·": 814,
      "ĠÐ¾Ð³": 815,
      "ĠÐ´Ð°Ð²": 816,
      "Ð°Ð¶Ð´": 817,
      "ĠÑģÐ¿ÑĢÐ¾Ñģ": 818,
      "ĠÐ½ÐµÐ²": 819,
      "Ð¸ÑĪÑĮ": 820,
      "Ð½Ð¸ÑĨ": 821,
      "ĠÐ½Ð¸Ð¼": 822,
      "ĠÑĥÐ³": 823,
      "ĠÑĤÐ¾ÑĤ": 824,
      "ÑĩÐ°Ñģ": 825,
      "ĠÐ²ÐµÐ´": 826,
      "ĠÐ³Ð´Ðµ": 827,
      "ÑĢÐ°ÑĪ": 828,
      "ĠÑģÐºÐ°Ð·Ð°Ð»Ð°": 829,
      "ĠÐ°ÑĢ": 830,
      "ĠÐ¸ÑģÐ¿": 831,
      "ĠÑģÑĤÑĢ": 832,
      "ĠÐ³Ð»Ð°Ð·Ð°": 833,
      "ĠÑĤÑĥÑĤ": 834,
      "ĠÐ·Ð°Ð±": 835,
      "ĠÐ¿ÑĢÐ¸Ð½": 836,
      "ĠÐ½ÐµÐ´": 837,
      "ĠÐ¾Ð´Ð¸Ð½": 838,
      "ĠÐ·Ð°Ð²": 839,
      "ĠÐ¼Ð¸Ð½": 840,
      "ÑĥÐº": 841,
      "Ð¾Ð´Ð°": 842,
      "Ð¾Ð²Ð¸Ñĩ": 843,
      "ÑĭÐ¼Ð¸": 844,
      "ĠÑįÑĤÐ¾Ð³Ð¾": 845,
      "Ð¸ÑĩÐµÑģÐº": 846,
      "ĠÐ½ÐµÐ¹": 847,
      "ĠÐ¸Ð½": 848,
      "ÑģÐºÐ¸Ð¹": 849,
      "ĠÐ²ÑĢÐµÐ¼Ñı": 850,
      "Ð½ÐµÐµ": 851,
      "ÑĢÐ°ÑĤ": 852,
      "ĠÑĩÐ°Ñģ": 853,
      "ĠÑĥÐ±": 854,
      "ÑĤÐ°": 855,
      "Ð°Ð½Ð¸Ñı": 856,
      "ĠÐ¿ÐµÑĢÐ²": 857,
      "ÐºÐ¸Ð¹": 858,
      "ÑĥÑī": 859,
      "ĠÑħÐ¾ÑĢÐ¾ÑĪ": 860,
      "ĠÐµÑģÑĤÑĮ": 861,
      "ÑģÑĤÐ²ÐµÐ½": 862,
      "Ð½ÑĥÐ²": 863,
      "ĠÑģÐ¼Ð¾ÑĤÑĢ": 864,
      "ÑĤÐ¾Ð²": 865,
      "ĠÑģÐµÑĢÐ´": 866,
      "ĠÐ±ÑĥÐ´ÐµÑĤ": 867,
      "ĠÑĤÐ°Ð¼": 868,
      "ĠÐ¾Ð¿ÑıÑĤÑĮ": 869,
      "ĠÑĤÐ¾Ð¼": 870,
      "ĠÐ¿ÑĢÐ¾Ð´": 871,
      "ĠÑįÑĤÐ¾ÑĤ": 872,
      "ĠÐ²ÑģÑı": 873,
      "Ð¸Ð±ÑĥÐ´ÑĮ": 874,
      "Ð°Ð½Ð¸Ðµ": 875,
      "ÑģÑĤÐ²Ð°": 876,
      "ÑĨÐµ": 877,
      "ÐºÐ°Ð¼Ð¸": 878,
      "Ð¾Ð²Ð°Ð»": 879,
      "ĠÐ¶ÐµÐ»": 880,
      "ĠÐ´ÐµÐ½ÑĮ": 881,
      "ĠÑĥÐ¿": 882,
      "Ð¸ÑĤÑģÑı": 883,
      "ĠÑģÐ¸Ð´": 884,
      "ÑıÑī": 885,
      "Ð»Ð°Ð´": 886,
      "Ð¼Ð¸": 887,
      "ÐµÑĢÐ°": 888,
      "ĠÐ½Ð¾Ð³": 889,
      "ĠÐºÐ¾Ð¼Ð½Ð°": 890,
      "ĠÐ¿Ð¾Ð³": 891,
      "ÑĪÐµÐ»": 892,
      "ĠÐ´Ð¾Ð»Ð¶": 893,
      "Ð¸Ð»Ð¾ÑģÑĮ": 894,
      "ÑıÐ²": 895,
      "ÑĢÐ¾Ð´": 896,
      "ĠÑĥÑģ": 897,
      "ĠÐ½Ð°Ð´Ð¾": 898,
      "ĠÐ¼ÑĥÐ¶": 899,
      "ÑĤÑĭ": 900,
      "ÑıÐ¶": 901,
      "ĠÐ±Ð¾Ð³": 902,
      "ĠÑĤÐ¾Ð»": 903,
      "ĠÐ»Ð¸ÑĨÐ¾": 904,
      "Ð½ÑĥÐ»ÑģÑı": 905,
      "ÐµÐ½Ð¸ÐµÐ¼": 906,
      "ĠÐ¿Ð¾ÑĤÐ¾Ð¼": 907,
      "ÐµÑİ": 908,
      "ĠÐ¿ÑĢÐ¸Ð²": 909,
      "ĠÐ³Ð¾Ð²Ð¾ÑĢÐ¸Ð»": 910,
      "ĠÑĢÐ°Ð´": 911,
      "ĠÐºÐ½ÑıÐ·": 912,
      "ĠÐ¼Ð¾Ð»Ð¾Ð´": 913,
      "Ð¸Ñİ": 914,
      "ĠÐ´ÐµÐ²": 915,
      "ĠÐ¿Ð¾ÑĤÐ¾Ð¼Ñĥ": 916,
      "ĠÐ¼Ð¸Ð½ÑĥÑĤ": 917,
      "ĠÐ²ÐµÐ´ÑĮ": 918,
      "ÑĩÐ½Ð¾": 919,
      "ĠÐ¿Ð°ÑĢ": 920,
      "ĠÐ¿Ð¾Ð¶": 921,
      "ĠÑĤÐµÐ±Ñı": 922,
      "ĠÑģÐ¾Ð»": 923,
      "ĠÐ½ÐµÑģÐº": 924,
      "Ð°Ð³Ð¾": 925,
      "Ð¸Ð²Ð°Ñı": 926,
      "ÑģÑĤÑĢÐ¾": 927,
      "ĠÐºÑĤÐ¾": 928,
      "ÐµÐ»Ð¾": 929,
      "ĠÑī": 930,
      "ĠÐ·Ð²": 931,
      "ĠÐ¿ÑĢÐ¾ÑĤ": 932,
      "ĠÐ±Ð¾Ð»ÑĮÑĪ": 933,
      "ĠÐ¼Ð°Ð»": 934,
      "ĠÑģÐ´ÐµÐ»": 935,
      "ÑģÑĤÑĥÐ¿": 936,
      "Ð¼Ð¾ÑĤÑĢ": 937,
      "ÑĥÐ½": 938,
      "Ð°ÐµÑĤÑģÑı": 939,
      "ÑĤÐ¾ÑĢÐ¾Ð½": 940,
      "Ð¾ÑģÑĤÐ¸": 941,
      "Ð°ÑİÑī": 942,
      "ÐµÐ½Ð¸Ð¸": 943,
      "ÐµÑĢÐ¸": 944,
      "ĠÐ½ÐµÐµ": 945,
      "Ð½ÑĥÐ»Ð°": 946,
      "Ð½Ð¸Ð±ÑĥÐ´ÑĮ": 947,
      "ĠÐ½Ð°Ð¼": 948,
      "ÑıÑģ": 949,
      "ĠÐ²Ð·Ð³": 950,
      "ĠÐ·Ð°Ð´": 951,
      "ĠÑĢÐµÑĪ": 952,
      "ÑģÐºÐ¾Ð¹": 953,
      "ĠÐ¸Ð·Ð²": 954,
      "ĠÑĤÐµÐ±Ðµ": 955,
      "ĠÑĤÐ¾Ð¶Ðµ": 956,
      "Ð³Ð¸Ð½": 957,
      "ÑıÑģÑĮ": 958,
      "ÐµÑĢÑĪ": 959,
      "ÑĩÐ¸Ðº": 960,
      "ĠÐ´ÑĥÑĪ": 961,
      "ĠÐ½ÐµÑģ": 962,
      "ĠÐ¿Ð¾ÑģÐ»Ðµ": 963,
      "ĠÐ´Ð¾ÑĢ": 964,
      "Ð¸ÑıÑĤ": 965,
      "ĠÑģÐ»ÑĥÑĩ": 966,
      "ĠÐ±ÑĥÐ´ÑĤÐ¾": 967,
      "ĠÑģÐ½": 968,
      "ÑĩÐ¸ÑĤ": 969,
      "ÑģÐºÐ¾Ð³Ð¾": 970,
      "ĠÐ¾ÑĤÐ²ÐµÑĤ": 971,
      "ÑĢÐ°Ñģ": 972,
      "ĠÐ¶Ð¸Ð²": 973,
      "ĠÐ²ÑĭÑģ": 974,
      "ÑĭÑĩ": 975,
      "ĠÐ²ÐµÑģ": 976,
      "ĠÑĤÐ¾Ð³Ð´Ð°": 977,
      "ĠÐ²ÑģÐµÑħ": 978,
      "ÐµÐºÑģ": 979,
      "Ð°ÑģÑĤ": 980,
      "ÑĥÐ¹": 981,
      "ĠÑģÑĤÐ¾ÑĢÐ¾Ð½": 982,
      "ĠÐºÐ¾ÑĤÐ¾ÑĢÑĭÐ¹": 983,
      "ÐµÐ³Ð´Ð°": 984,
      "ĠÐ½Ð¾Ñĩ": 985,
      "Ð¾Ð»Ð¶": 986,
      "ĠÑģÐ¾Ñģ": 987,
      "ĠÐ·Ð°ÑĤ": 988,
      "ĠÑĥÐ·": 989,
      "ĠÐ²ÐµÐ»": 990,
      "ĠÑģÐ²Ð¾ÐµÐ¹": 991,
      "ĠÐ½Ð¸Ñħ": 992,
      "Ð¾ÐºÐ¾": 993,
      "ÑĢÐ¾Ð²": 994,
      "ĠÑĢÐ°Ð·Ð³": 995,
      "Ð¾Ð¼Ð½": 996,
      "Ð¾ÑģÑĤÑĮ": 997,
      "ĠÐ³Ð¾ÑģÐ¿": 998,
      "ÐµÐ½Ð½ÑĭÐ¹": 999,
      "ÐµÑģÑı": 1000,
      "ĠÐ½Ð¾Ð²": 1001,
      "ĠÐ½ÐµÑģÐºÐ¾Ð»ÑĮÐºÐ¾": 1002,
      "Ð¸Ð»Ð¾": 1003,
      "ĠÑĤÐ¸Ñħ": 1004,
      "Ð¾Ð²Ð¾Ð»ÑĮ": 1005,
      "ĠÐ±ÐµÐ»": 1006,
      "ĠÐ¿ÑĢÐ¾ÑĪ": 1007,
      "ÑĤÑĥ": 1008,
      "ĠÐ·Ð°Ð³": 1009,
      "ĠÐ¾ÑģÐ¾Ð±": 1010,
      "Ð°ÐºÐ¾Ð¼": 1011,
      "Ð°Ð½Ð°": 1012,
      "ĠÑĩÐµÐ³Ð¾": 1013,
      "Ð¸Ð³Ð¾": 1014,
      "ÐºÐ°Ñħ": 1015,
      "ĠÐ°Ð»ÐµÐºÑģ": 1016,
      "ĠÐ¼Ð°ÑĤ": 1017,
      "ĠÐ²ÑģÐ¿": 1018,
      "Ð»Ð¾Ð½": 1019,
      "ĠÐ¿ÑĢÐ¾Ð´Ð¾Ð»Ð¶": 1020,
      "Ð²Ð°ÑĢ": 1021,
      "ÑĢÐ°Ð¶": 1022,
      "ĠÑįÑĤÐ¾Ð¼": 1023,
      "ÑĢÐ°ÑĦ": 1024,
      "ĠÐ²ÐµÑĩ": 1025,
      "ĠÑĩÐµÑĢÐµÐ·": 1026,
      "Ð¾Ð²Ð°ÑĢ": 1027,
      "ĠÑĢÐ°Ð·Ð²": 1028,
      "ĠÑĢÐ¾Ð´": 1029,
      "ĠÑĢÐ°ÑģÑģÐº": 1030,
      "ĠÐ»ÐµÑĤ": 1031,
      "ĠÑĢÑĥÐºÐ¸": 1032,
      "ÑĭÑĢ": 1033,
      "Ð¿ÑĢ": 1034,
      "ĠÐ´ÐµÑĢ": 1035,
      "ÑĭÐº": 1036,
      "ĠÑģÐ²Ð¾Ñİ": 1037,
      "ĠÐ¾Ð´Ð½": 1038,
      "ĠÑĢÐ°ÑģÑģ": 1039,
      "ĠÑįÑĤÐ¸": 1040,
      "ĠÐ±Ð¾Ð»ÐµÐµ": 1041,
      "Ð¸Ð½Ñĭ": 1042,
      "ĠÐ»ÑĥÑĩ": 1043,
      "ĠÐ³Ð»ÑıÐ´": 1044,
      ",--": 1045,
      "ĠÐ²ÑģÐµÐ³Ð´Ð°": 1046,
      "ĠÑħÐ¾Ñĩ": 1047,
      "ÑĤÐµÑĢ": 1048,
      "ĠÐ¿Ð¾ÑģÐ»ÐµÐ´": 1049,
      "ÐµÑģÑĮ": 1050,
      "ĠÐ´ÐµÐ»Ð¾": 1051,
      "ĠÐ±Ð°ÑĢ": 1052,
      "Ð¸Ð¼Ð¾": 1053,
      "ĠÐ¾ÑģÑĤÐ°Ð²": 1054,
      "Ð²Ð°ÑĤ": 1055,
      "ĠÑģÐ¾Ð²ÐµÑĢÑĪ": 1056,
      "ĠÑģÐ»ÑĭÑĪ": 1057,
      "Ð½Ñİ": 1058,
      "ĠÐ¼ÐµÐ¶": 1059,
      "Ð»Ð¾Ð²": 1060,
      "ĠÐ¸ÑģÐº": 1061,
      "ĠÐ²ÑģÑĤÑĢ": 1062,
      "ĠÐ¿ÑĢÐ¸Ñģ": 1063,
      "Ð»Ðµ": 1064,
      "ĠÑģÐ²ÐµÑĤ": 1065,
      "Ð¾ÐºÐ¾Ð¹": 1066,
      "ĠÑģÑĤÑĢÐ°Ð½": 1067,
      "ĠÐ½Ð°Ð²": 1068,
      "ĠÐ¶ÐµÐ½Ñī": 1069,
      "ĠÐ¸Ð³": 1070,
      "ÑİÑĤ": 1071,
      "Ð¸Ð²Ð°Ð»": 1072,
      "ĠÐºÐ°ÐºÐ¾Ð¹": 1073,
      "ĠÑĢÑĥÐºÑĥ": 1074,
      "ĠÐ¼Ð¸Ð»": 1075,
      "ÐµÑģÑĤÐµ": 1076,
      "ĠÐ½Ð°Ð·": 1077,
      "ĠÐ½ÑĥÐ¶": 1078,
      "ĠÑģÐºÐ°Ð·Ð°ÑĤÑĮ": 1079,
      "Ð¸Ð½Ðµ": 1080,
      "ĠÐ·ÐµÐ¼": 1081,
      "ĠÐ½ÐµÐ±": 1082,
      "ĠÑĢÐ°Ð±": 1083,
      "ĠÐ±Ð¾ÑĢ": 1084,
      "ĠÑģÐ¿ÑĢÐ¾ÑģÐ¸Ð»": 1085,
      "ĠÐ¿Ð¾Ð±": 1086,
      "Ð¸Ñī": 1087,
      "ĠÐ¿Ð¾Ð½Ð¸Ð¼": 1088,
      "ĠÐ¸Ð²Ð°Ð½Ð¾Ð²": 1089,
      "ĠÑĥÐ²Ð¸Ð´": 1090,
      "ĠÐ²ÑģÐµÐ¼": 1091,
      "ĠÐºÐ¾ÑĤÐ¾ÑĢÑĭÐµ": 1092,
      "ĠÐ¼Ð¾Ð¹": 1093,
      "Ñį": 1094,
      "ĠÐ¸Ñģ": 1095,
      "ĠÐ·Ð°Ñģ": 1096,
      "Ð°ÐºÐ¸": 1097,
      "ĠÐ²ÑģÑĳ": 1098,
      "ĠÐµÐ´": 1099,
      "Ð½ÑĮ": 1100,
      "ĠÐ¼Ð½Ð¾Ð³Ð¾": 1101,
      "Ð»Ð¸ÑģÑĮ": 1102,
      "ÑĩÐ°ÑģÑĤ": 1103,
      "ĠÐ»ÐµÐ³": 1104,
      "ĠÐ¸Ð´": 1105,
      "ĠÐ¼ÐµÐ¶Ð´Ñĥ": 1106,
      "ĠÑģÐ»ÐµÐ´": 1107,
      "ĠÐ³ÑĥÐ±": 1108,
      "ĠÑİ": 1109,
      "Ð°Ð½ÑĤ": 1110,
      "ĠÐ¾ÑĢ": 1111,
      "ĠÐ±Ð¾Ð»ÑĮÑĪÐµ": 1112,
      "ÐµÐ½Ð°": 1113,
      "ĠÐ²Ð¾Ð¿": 1114,
      "Ð½Ð¾Ñİ": 1115,
      "ĠÑħÐ¾ÑĤÐµÐ»": 1116,
      "ÐµÐ½ÑĮÐº": 1117,
      "ĠÐ¼Ð½": 1118,
      "ĠÐ¿ÑĢÐ¸Ðº": 1119,
      "ĠÑģÐµÐ¼": 1120,
      "ĠÐ¿Ð¾ÑĩÑĤÐ¸": 1121,
      "ĠÐ²Ð¼": 1122,
      "ÑĢÐ°Ñī": 1123,
      "ĠÐ·Ð°Ð¼ÐµÑĤ": 1124,
      "Ð²ÐµÑĤ": 1125,
      "ĠÐ¿ÑĢÐ¸Ð±": 1126,
      "Ð¾Ð½ÐµÑĨ": 1127,
      "ĠÐ½ÐµÐº": 1128,
      "ÐµÑĢÑĤ": 1129,
      "ĠÐ´Ð¾ÑĢÐ¾Ð³": 1130,
      "ĠÐ²Ð¾ÑĢ": 1131,
      "ĠÑģÐ»Ð¾Ð²Ð°": 1132,
      "ĠÑģÑĭ": 1133,
      "ÑĢÐ¾Ð¼": 1134,
      "ĠÑģÐºÐ¾ÑĢ": 1135,
      "Ð°Ð½Ð´": 1136,
      "ĠÐ´Ð¾Ð±ÑĢ": 1137,
      "Ð½ÑĥÑĤÑĮ": 1138,
      "ÑĢÑĭÐ²": 1139,
      "ĠÑĢÐ°ÑģÐ¿": 1140,
      "ĠÐ¾ÑĤÐ²ÐµÑĩ": 1141,
      "Ð°Ð´ÑĨ": 1142,
      "ĠÐ¾Ð±ÑĬ": 1143,
      "Ð¸Ð³Ð¾ÑĢ": 1144,
      "ĠÐ½ÐµÐ¿ÑĢ": 1145,
      "ĠÐ¿ÑĢÐµÐ¶": 1146,
      "ĠÑĤÐ¾ÑĢ": 1147,
      "Ð»Ð¸Ð²Ð¾": 1148,
      "ĠÑĤÐ²": 1149,
      "ÑĥÑģÐº": 1150,
      "ĠÐ¿ÑĢÐ¾ÑģÑĤ": 1151,
      "ĠÐ³Ð¾Ð»Ð¾Ð²Ñĥ": 1152,
      "ĠÐ²ÐµÑģÑĮ": 1153,
      "ĠÐ´Ð²Ð°": 1154,
      "ĠÐºÐ°Ð¶Ð´": 1155,
      "ÑĪÐ¸Ð¹": 1156,
      "ĠÐ¿Ð¾Ð»Ð¾Ð¶": 1157,
      "ĠÐ½Ð°ÐºÐ¾Ð½ÐµÑĨ": 1158,
      "ÑģÑĤÐ²ÐµÐ½Ð½Ð¾": 1159,
      "ĠÐ·Ð½Ð°Ñİ": 1160,
      "ĠÐ¿Ð¾Ð´ÑĥÐ¼": 1161,
      "ÑģÐµÐ¼": 1162,
      "ĠÑģÑĤÐ°Ð»": 1163,
      "ĠÑģÐºÐ°Ð¶": 1164,
      "Ð°ÐµÐ¼": 1165,
      "Ð½Ð¾Ð¼Ñĥ": 1166,
      "Ð°Ð¹ÑĤÐµ": 1167,
      "ĠÑģÐ°Ð¼Ð³Ð¸Ð½": 1168,
      "ÑĩÐ¸Ð²": 1169,
      "Ð¸Ð½Ð¾Ð²": 1170,
      "ÑĭÐ´": 1171,
      "Ð¸ÐµÐ¼": 1172,
      "ÑıÐ³": 1173,
      "ĠÑģÑĤÐµÐ¿": 1174,
      "ĠÐºÐ½ÑıÐ·ÑĮ": 1175,
      "ĠÐ±ÑĢÐ°ÑĤ": 1176,
      "ĠÑģÐµÐ¹": 1177,
      "ĠÑĥÑģÐ¿": 1178,
      "ĠÐ´ÐµÑĤ": 1179,
      "ĠÑĤÐ¾ÑĩÐ½Ð¾": 1180,
      "ĠÐ·Ð°Ð½": 1181,
      "ĠÐ´Ð¾Ðº": 1182,
      "Ð¾Ð¶Ð´": 1183,
      "ĠÐ³ÑĢÐ¸Ð³Ð¾ÑĢ": 1184,
      "ĠÐ¶Ð¸Ð·Ð½Ð¸": 1185,
      "ĠÑģÐ¾Ð²ÑģÐµÐ¼": 1186,
      "ĠÐ¾Ð¶": 1187,
      "ĠÐ¼Ð¾Ð¶Ð½Ð¾": 1188,
      "ĠÐ¾ÑĤÐºÑĢ": 1189,
      "ÐµÐ½ÑĤ": 1190,
      "ĠÐ²Ð°ÑĢ": 1191,
      "ĠÐ»ÑİÐ´ÐµÐ¹": 1192,
      "ĠÐ»ÑİÐ´Ð¸": 1193,
      "ÑĩÐµ": 1194,
      "ĠÐ¿ÑĢÐ¸Ð´": 1195,
      "ĠÐ½Ð¸ÐºÐ¾Ð»": 1196,
      "ĠÑħÐ¾Ð´": 1197,
      "ĠÐ¿ÑĢÐ¸ÑĪ": 1198,
      "Ð¾Ð½Ð°": 1199,
      "ĠÑĥÑĤ": 1200,
      "Ð¾ÑĢÐ¾Ð²": 1201,
      "ĠÐ±ÑĭÐ²": 1202,
      "ĠÐ´ÑĢÑĥÐ³Ð¾Ð¹": 1203,
      "ĠÐ±ÐµÑĢ": 1204,
      "ĠÐ½Ð°ÑĤ": 1205,
      "ĠÐ¿Ð¾Ñħ": 1206,
      "ĠÐ²ÑĬ": 1207,
      "ÐµÐ¹ÑģÑĤÐ²": 1208,
      "Ð¾Ð²Ð°ÑĤÑĮ": 1209,
      "ĠÐ³ÑĢÐ°ÑĦ": 1210,
      "ĠÐ½Ð¸ÐºÐ¾Ð³Ð´Ð°": 1211,
      "ĠÑħÐ¾ÑĤÑı": 1212,
      "ĠÐ°Ð½Ð´ÑĢ": 1213,
      "ÐµÑĢÐµÐ´": 1214,
      "Ð½ÑıÐ»": 1215,
      "ÑĥÑĤÑĮ": 1216,
      "ĠÐ¾ÑĤÐº": 1217,
      "ĠÐ²Ð¾Ð´": 1218,
      "ĠÑįÑĤÐ¾Ð¹": 1219,
      "ĠÑĥÐº": 1220,
      "ĠÐ²ÑģÐµÐ³Ð¾": 1221,
      "ÑĤÐ¾Ñĩ": 1222,
      "ĠÐ²Ð¾Ð¿ÑĢÐ¾Ñģ": 1223,
      "Ð»Ð¸Ð½": 1224,
      "ĠÐ²ÑģÐº": 1225,
      "ĠÑĥÐ´Ð¸Ð²": 1226,
      "ĠÐ´ÐµÑĢÐµÐ²": 1227,
      "ĠÐ¿ÑĢÐ¾Ð¸Ð·": 1228,
      "ĠÑģÐ»ÑĥÑĪ": 1229,
      "ĠÐ¿Ð¾ÑģÑĤ": 1230,
      "ÑĥÑĪÐºÐ°": 1231,
      "ĠÑģÐ²Ð¾ÐµÐ³Ð¾": 1232,
      "ĠÑħÐ¾Ð»": 1233,
      "ÑıÑħ": 1234,
      "ÑĨÑĭ": 1235,
      "ĠÐ³Ð¾ÑĢÐ¾Ð´": 1236,
      "ÑĢÑĭ": 1237,
      "ĠÐ¿ÑĢÐ¾Ð²": 1238,
      "ĠÐ¿ÑĢÐ¾Ð³": 1239,
      "Ð´ÐµÑģÑĮ": 1240,
      "Ð¾ÑĤÑĮ": 1241,
      "ĠÐ¶Ð°Ð»": 1242,
      "ĠÐ´Ð¾ÑģÑĤ": 1243,
      "ĠÑĥÐ¶Ð°Ñģ": 1244,
      "Ð¾Ð²Ð°Ð½": 1245,
      "ĠÐ¾ÑĤÐ´": 1246,
      "ĠÐ¿ÑĢÐ¾ÑĤÐ¸Ð²": 1247,
      "ĠÑģÐµÐ¹ÑĩÐ°Ñģ": 1248,
      "ĠÐºÐ½": 1249,
      "ĠÐ¿Ð¾Ð¹": 1250,
      "ÑĢÐ¾Ñĩ": 1251,
      "Ð¼Ð°": 1252,
      "ĠÑħÑĢ": 1253,
      "ÑĥÐµÑĤ": 1254,
      "ĠÐ·Ð´ÐµÑģÑĮ": 1255,
      "Ð¾Ð·Ñı": 1256,
      "ĠÐ¿ÐµÑĤÑĢ": 1257,
      "Ð²Ð¾ÑĢ": 1258,
      "Ð¾ÑĪÐµÐ»": 1259,
      "ÑĨÐµÐ²": 1260,
      "ĠÑħÐ¾ÑĢÐ¾ÑĪÐ¾": 1261,
      "Ð¾Ñī": 1262,
      "ĠÐ»ÐµÐ²": 1263,
      "ĠÑĥÑĩ": 1264,
      "ĠÑĤÑıÐ¶": 1265,
      "ĠÐ³Ð¾ÑģÐ¿Ð¾Ð´": 1266,
      "ĠÐ¾ÑģÑĤÐ°Ð½Ð¾Ð²": 1267,
      "ÐµÑı": 1268,
      "ĠÐ²ÑĭÐ¿": 1269,
      "ÐµÐ»Ñı": 1270,
      "Ð»Ð°Ñģ": 1271,
      "ĠÐºÑĢÐ¸Ðº": 1272,
      "ÐµÐ²Ð¸Ñĩ": 1273,
      "ĠÐ´Ð²Ð¾ÑĢ": 1274,
      "ĠÐ¿Ð°Ð»ÑĮ": 1275,
      "ÐµÑģÑĤÑĮ": 1276,
      "ĠÑĪÐ°Ð³": 1277,
      "ÑĢÐ°Ð½ÑĨ": 1278,
      "Ð¾Ð½Ð¾Ð²": 1279,
      "ĠÐ»ÐµÐ¶": 1280,
      "Ð»ÐµÐ½Ð½Ð¾": 1281,
      "ĠÐ²Ð·Ð´": 1282,
      "ĠÐ¿Ð¾Ð¶Ð°Ð»": 1283,
      "ÑħÐ²Ð°ÑĤ": 1284,
      "Ð¾ÑĪÐ°Ð´": 1285,
      "ĠÑĤÐ°ÐºÐ¾Ð¹": 1286,
      "ĠÐ¶Ð¸Ð·Ð½ÑĮ": 1287,
      "ĠÑįÑĤÑĥ": 1288,
      "ĠÐ¿Ð»ÐµÑĩ": 1289,
      "ÐµÐ½Ð½ÑĭÐµ": 1290,
      "ĠÐ¿Ð¾ÐºÐ°Ð·": 1291,
      "ĠÐ¼ÐµÐ´": 1292,
      "ĠÑģÐ°Ð´": 1293,
      "ĠÐ½ÐµÐ¼Ñĥ": 1294,
      "ÑıÐ»Ð°": 1295,
      "ĠÐ»Ð¾ÑĪÐ°Ð´": 1296,
      "ĠÑħÐ¾Ð·Ñı": 1297,
      "ÐµÑģÑĤÐ¸": 1298,
      "ĠÑĤÐ¾Ð½": 1299,
      "ĠÐ¿ÑĢÐµÐ´ÑģÑĤÐ°Ð²": 1300,
      "ĠÐ²ÐµÑĩÐµÑĢ": 1301,
      "ĠÐºÐ»Ð¸Ð¼": 1302,
      "ĠÑģÐ¸Ð»": 1303,
      "ĠÐ³Ð¾ÑģÑĤ": 1304,
      "Ð½Ð¸ÐºÐ°": 1305,
      "ĠÐ¼Ð°ÑĤÑĮ": 1306,
      "ĠÐ²Ð¾Ð¹": 1307,
      "ĠÑĩÐµÑĤ": 1308,
      "ĠÑģÐ¾Ð²ÐµÑĢÑĪÐµÐ½Ð½Ð¾": 1309,
      "ÐµÐ½Ð½Ð¾Ð¹": 1310,
      "),": 1311,
      "ĠÐ·Ð´": 1312,
      "ĠÑĢÐ°Ð·Ð³Ð¾Ð²Ð¾ÑĢ": 1313,
      "ÐµÐ½Ñĭ": 1314,
      "ĠÐ±ÑĢÐ¾Ñģ": 1315,
      "ĠÐ½ÐµÐ¾Ð±": 1316,
      "ÑĢÑĥÐ¶": 1317,
      "ÐµÑĩÐ½Ð¾": 1318,
      "ÑıÐ»ÑģÑı": 1319,
      "Ð¸Ð½Ð¾Ð¹": 1320,
      "Ð»ÑĮ": 1321,
      "ĠÐ³Ð¾Ð²Ð¾ÑĢÐ¸ÑĤÑĮ": 1322,
      "ĠÑıÐ²": 1323,
      "ĠÑĢÑĥÑģ": 1324,
      "Ð¼Ðµ": 1325,
      "Ð¼Ð°Ð½": 1326,
      "ĠÑįÑĤÐ°": 1327,
      "ÑĥÐ¶Ð´": 1328,
      "ĠÑģÐ²Ð¾Ð¸": 1329,
      "ĠÐ¼Ð¸Ð½ÑĥÑĤÑĥ": 1330,
      "Ð½Ð¸Ð¹": 1331,
      "ÑıÐ¼Ð¸": 1332,
      "Ð¼Ð¾Ð¶": 1333,
      "ĠÐ±ÐµÐ´": 1334,
      "ĠÐ±Ð»Ð°Ð³": 1335,
      "Ð½Ð¸Ðµ": 1336,
      "Ð¾Ð²Ð¾ÑĢÐ¸Ð»": 1337,
      "ĠÐ¾ÑĤÑĩ": 1338,
      "ĠÐ·Ð»": 1339,
      "ĠÐºÐ°Ð·Ð°Ð»Ð¾ÑģÑĮ": 1340,
      "ĠÐ³Ð¾Ð²Ð¾ÑĢÐ¸ÑĤ": 1341,
      "ĠÐ¿Ð¾Ð·Ð²": 1342,
      "ÑģÐºÐ¸Ñħ": 1343,
      "ĠÐ½Ð¸ÐºÐ°Ðº": 1344,
      "ĠÐ´Ð²ÐµÑĢÑĮ": 1345,
      "ĠÑĩÐµÐ»Ð¾Ð²ÐµÐºÐ°": 1346,
      "ĠÐ³Ð»Ð°Ð·Ð°Ð¼Ð¸": 1347,
      "ÐµÐ½Ð¸Ñİ": 1348,
      "ÑĮÐµ": 1349,
      "ÑİÑī": 1350,
      "ĠÐ´ÐµÐ¹ÑģÑĤÐ²": 1351,
      "ĠÐ¿Ð¸ÑģÑĮ": 1352,
      "ĠÐ¿ÑĢÐ¸Ð·": 1353,
      "ĠÐ¾Ð±ÑĢÐ°Ð·": 1354,
      "ÑĭÐ²Ð°Ð»": 1355,
      "ÑĭÐ²Ð°Ñı": 1356,
      "ĠÑģÐ²Ð¾Ðµ": 1357,
      "ÐµÑĤÐ°": 1358,
      "ĠÐ·Ð°ÑĢ": 1359,
      "ĠÐºÑĢÑĥÐ³": 1360,
      "ĠÐ¿Ð°Ð²": 1361,
      "Ð½Ð¸Ñĩ": 1362,
      "ĠÐ¿ÑĢÐ¸Ñħ": 1363,
      "ĠÑģÐ¸Ð»ÑĮ": 1364,
      "ĠÐ¾ÑĤÐ¿": 1365,
      "ĠÑĤÐ¾ÑĤÑĩÐ°Ñģ": 1366,
      "Ð½Ð¸ÐºÐ¾Ð²": 1367,
      "Ð²Ð°": 1368,
      "ĠÐ³Ð¾Ð´": 1369,
      "ĠÑģÑĤÑĢÐ°": 1370,
      "ÐµÐ²ÑĪ": 1371,
      "ĠÐºÐ°Ð¶": 1372,
      "ÑĢÐ¾Ð½": 1373,
      "ĠÐ¼Ð¾ÑĢ": 1374,
      "ĠÑĢÐ°Ð±Ð¾ÑĤ": 1375,
      "ĠÐ¾ÑģÐ¾Ð±ÐµÐ½Ð½Ð¾": 1376,
      "Ð»Ð¸Ðº": 1377,
      "ÐµÑĢÐº": 1378,
      "ĠÐ¿Ð¾ÑĪ": 1379,
      "ĠÐ¿Ð¾ÑĩÐµÐ¼Ñĥ": 1380,
      "ÑĥÑīÐµ": 1381,
      "ÐµÐ³Ð¾Ð´": 1382,
      "ĠÐ±ÐµÑģÐ¿": 1383,
      "ĠÐ¿Ð¾ÑģÐ¼Ð¾ÑĤÑĢ": 1384,
      "ĠÐ´Ð¾Ð»Ð³Ð¾": 1385,
      "ĠÐ½ÐµÐ¶": 1386,
      "ĠÐ¾Ð´Ð½Ð¾": 1387,
      "ĠÑĦÐµÐ´": 1388,
      "ĠÐ¿ÑĮ": 1389,
      "ĠÑģÐ¾Ð³": 1390,
      "ĠÐ¿Ð¾Ð»ÑĥÑĩ": 1391,
      "ĠÐ»ÑĥÑĩÑĪÐµ": 1392,
      "Ð¶Ðµ": 1393,
      "ĠÐ´Ð¾Ñģ": 1394,
      "Ð»ÑıÐ»": 1395,
      "ĠÐ¿ÑĢÐ¾Ñĩ": 1396,
      "ĠÐ¿ÑĢÑıÐ¼": 1397,
      "ĠÐºÑĥÐ´Ð°": 1398,
      "ÑĢÐµÐ·": 1399,
      "ĠÐ´ÐµÑĢÐ¶": 1400,
      "ĠÐ²ÑģÑİ": 1401,
      "ĠÑģÐ»ÐµÐ·": 1402,
      "ĠÑģÑĤÑĢÐ°ÑĪ": 1403,
      "ĠÑĤÐµÑĢ": 1404,
      "ÐµÐ½Ð¸Ð¹": 1405,
      "ĠÑĤÑĢÐ¸": 1406,
      "ĠÑĩÐ¸ÑĤ": 1407,
      "Ð·Ñı": 1408,
      "ĠÐ²Ð¸Ð´ÐµÐ»": 1409,
      "ĠÐ»ÑİÐ±Ð¾Ð²": 1410,
      "ĠÐ¸Ð²Ð°Ð½": 1411,
      "ĠÐ½Ð¾Ñģ": 1412,
      "ÐµÐ½Ð¾": 1413,
      "ÑĦÐ¸ÑĨ": 1414,
      "ĠÑħÐ»": 1415,
      "ĠÐ´Ð°Ð»": 1416,
      "ÑıÑĩ": 1417,
      "ĠÐºÑĥÑĢ": 1418,
      "ĠÑĥÐ»Ð¸": 1419,
      "ĠÐ¾ÑĤÐµÑĨ": 1420,
      "ĠÐ¿ÑĢÐ¸ÑıÑĤ": 1421,
      "Ð¸Ð²Ð°ÑĤÑĮ": 1422,
      "ĠÐ²Ð·Ð³Ð»Ñı": 1423,
      "ĠÑģÑĬ": 1424,
      "ĠÑģÑĢÐµÐ´": 1425,
      "ĠÐ¼ÑĭÑģÐ»": 1426,
      "ĠÑģÑĤÐ°ÑĢÐ¸Ðº": 1427,
      "ĠÐ¿ÑĢÐ¾ÑģÑĤÐ¾": 1428,
      "ĠÑĨÐµÐ»": 1429,
      "ĠÐ´Ð¾Ð¼Ð°": 1430,
      "ĠÐ³Ð»Ð°Ð²": 1431,
      "ĠÐ¼Ð¾Ð»Ñĩ": 1432,
      "ĠÑĦÑĢÐ°Ð½ÑĨ": 1433,
      "ĠÐ´ÑĥÐ¼Ð°Ð»": 1434,
      "ÑĨÑĥ": 1435,
      "ĠÐ¿ÑıÑĤ": 1436,
      "Ð¾Ð±ÑĢÐ°Ð·": 1437,
      "ĠÐ¾Ð±ÑĢÐ°ÑĤ": 1438,
      "ĠÐ¼Ð¾Ð³Ñĥ": 1439,
      "ĠÐ½Ð°ÑĩÐ°Ð»": 1440,
      "ÐµÐ½Ð½ÑĭÑħ": 1441,
      "ĠÑģÐ²Ð¾Ð¹": 1442,
      "ĠÐºÐ°Ð¼": 1443,
      "ÐµÐ·Ð´": 1444,
      "Ð°ÑĤÑĢ": 1445,
      "Ð½Ð¾Ñģ": 1446,
      "ÑģÑĤÐ°Ð»": 1447,
      "ĠÐºÐ¾ÑĤÐ¾ÑĢÐ¾Ð¹": 1448,
      "Ð»ÑİÑĩ": 1449,
      "Ð»Ð¾Ð¶": 1450,
      "ĠÐ±Ð¾": 1451,
      "ĠÑĢÐ°Ð²": 1452,
      "ÐµÐ½Ð½ÑĭÐ¼": 1453,
      "ĠÐ¿ÑĢÐ¾Ð±": 1454,
      "ĠÐºÐ¾Ð½ÐµÑĩÐ½Ð¾": 1455,
      "ÐµÑģÑĤÐ¾": 1456,
      "ĠÑħÐ¾ÑĤÑĮ": 1457,
      "ĠÑĤÐµ": 1458,
      "ĠÐ·Ð½Ð°ÐºÐ¾Ð¼": 1459,
      "ĠÐºÐ°Ð¶ÐµÑĤÑģÑı": 1460,
      "ĠÑģÑĥÐ´": 1461,
      "ĠÐ·Ð½Ð°Ð»": 1462,
      "ĠÐ±Ð°Ð±": 1463,
      "Ð½Ð°Ñĩ": 1464,
      "ÐµÐ·Ð¶": 1465,
      "Ð°ÑĤÐµÐ»ÑĮÐ½Ð¾": 1466,
      "ÑĢÐ¸Ñĩ": 1467,
      "ĠÐ³ÑĢÐ¾Ð¼": 1468,
      "ÐµÐ»ÑĮÐ·Ñı": 1469,
      "ĠÐ½Ð°Ð¿ÑĢ": 1470,
      "Ð»ÐµÐ½Ð¸Ðµ": 1471,
      "ĠÐ±ÑĭÑģÑĤÑĢÐ¾": 1472,
      "ĠÑĤÑĢÑĥÐ´": 1473,
      "Ð°ÐºÐ¾": 1474,
      "Ð¸ÑģÐº": 1475,
      "ĠÐ¼Ð¾Ñı": 1476,
      "ÑĥÑİÑī": 1477,
      "ĠÐ²Ð·Ð³Ð»ÑıÐ´": 1478,
      "ĠÑĤÐ°": 1479,
      "ĠÐ¿ÑĢÐ¸Ð¿": 1480,
      "ĠÑģÐ²Ð¾Ð¸Ñħ": 1481,
      "ĠÑģÑĤÐ°Ð½": 1482,
      "ĠÐºÑĢÐ¾Ð²": 1483,
      "ĠÑģÑĤÐ°Ð»Ð¾": 1484,
      "ĠÐ²ÑĭÑĢÐ°Ð¶": 1485,
      "ĠÐºÐ°ÑĤ": 1486,
      "ÐµÐ½Ð½Ð¾Ð³Ð¾": 1487,
      "ĠÐ²Ð¼ÐµÑģÑĤÐµ": 1488,
      "ĠÑĢÑĥÐ±": 1489,
      "ÐµÐ½ÐµÑĢ": 1490,
      "ĠÐ½ÐµÐ»ÑĮÐ·Ñı": 1491,
      "ĠÐ¿ÑĢÐµÐº": 1492,
      "ĠÑģÐ»ÑĥÐ¶": 1493,
      "Ð»ÐµÑĤ": 1494,
      "Ð½ÑĥÑĤ": 1495,
      "ĠÐ¼ÐµÑģÑĤ": 1496,
      "Ð°ÐµÑĤÐµ": 1497,
      "ĠÐ½ÐµÑĩ": 1498,
      "Ð½ÐµÐ¼": 1499,
      "ĠÐ²Ð½": 1500,
      "ĠÑħÐ¾Ð»Ð¾Ð´": 1501,
      "Ð»ÐµÐ½Ð¸Ñı": 1502,
      "ĠÑĥÑģÐ»": 1503,
      "ĠÑĤÐ¾Ð¼Ñĥ": 1504,
      "ĠÐ¿Ð¾Ð²ÐµÑĢ": 1505,
      "Ð½ÐµÐ²": 1506,
      "ĠÐ¾ÑĦÐ¸ÑĨ": 1507,
      "ĠÐ½Ð°ÑģÑĤ": 1508,
      "ĠÑĤÐ¸ÑħÐ¾": 1509,
      "Ð¾Ð²Ð¾Ð¹": 1510,
      "ÑģÐºÐ¸Ðµ": 1511,
      "ĠÑĢÐ°Ð·Ð´": 1512,
      "Ð½ÑĥÐ»Ð°ÑģÑĮ": 1513,
      "ĠÑģÐ½Ð¾Ð²Ð°": 1514,
      "ĠÐ¸Ð³ÑĢ": 1515,
      "ĠÐ¼Ð¸ÑĢ": 1516,
      "Ð¸ÑĨÑĭ": 1517,
      "Ð¼Ñĭ": 1518,
      "Ð»Ð¸Ñĩ": 1519,
      "Ð»Ð¸ÑĪ": 1520,
      "ĠÐ·Ð°Ð»": 1521,
      "Ð°ÑĢÐ¾Ð²": 1522,
      "ĠÐ°Ðº": 1523,
      "Ð»ÑİÐ´": 1524,
      "ÐµÐ²Ð½Ð°": 1525,
      "ÑģÑĤÐ²Ð¾Ð¼": 1526,
      "ÐºÐ¸Ðµ": 1527,
      "ĠÐ¾Ð´Ð½Ð°": 1528,
      "ĠÑģÐµÑĢÐ´ÑĨÐµ": 1529,
      "ĠÐ¼ÐµÑĢ": 1530,
      "ĠÐ¾Ð´Ð½Ð°ÐºÐ¾": 1531,
      "Ð»ÐµÐ´": 1532,
      "Ð¸ÑĢÐ°": 1533,
      "ĠÐ´Ð°Ð¼": 1534,
      "Ð°ÐµÑĪÑĮ": 1535,
      "ĠÐºÐ¾ÑĤÐ¾ÑĢÐ°Ñı": 1536,
      "ĠÐ¾Ñħ": 1537,
      "ĠÑĥÑĤÑĢ": 1538,
      "ĠÑģÐ²Ð¾Ð¸Ð¼": 1539,
      "Ð¼Ð¾": 1540,
      "ĠÐ²Ð½Ð¸Ð¼": 1541,
      "ÑĪÐ¸ÑģÑĮ": 1542,
      "ĠÑģÐ¼ÐµÑĢ": 1543,
      "ĠÐ²ÐµÐ»Ð¸Ðº": 1544,
      "ĠÐ´Ð¾Ð²Ð¾Ð»ÑĮ": 1545,
      "ĠÐ²Ð¾Ð»Ð¾Ñģ": 1546,
      "ĠÐ²Ð¾Ð·Ð²": 1547,
      "ĠÐ¾ÑĤÑĤ": 1548,
      "ĠÐ¿Ð¾Ð²ÑĤÐ¾ÑĢ": 1549,
      "ÑĭÐºÐ½Ð¾Ð²": 1550,
      "Ġ1": 1551,
      "ĠÐ·Ð°Ñĩ": 1552,
      "ĠÐºÐ¾ÑĤÐ¾ÑĢÐ¾Ð³Ð¾": 1553,
      "ĠÐ¿ÑĢÐ¸Ð¼": 1554,
      "ĠÑģÐ¾Ð·": 1555,
      "ĠÑĪÐ¸ÑĢ": 1556,
      "Ð¾Ð±Ð½Ð¾": 1557,
      "Ð°ÑĪÐ°": 1558,
      "ĠÐ¿ÑĥÑģÑĤ": 1559,
      "ĠÐ±Ð»Ð°Ð³Ð¾": 1560,
      "ĠÑģÐ¿Ð¾ÐºÐ¾Ð¹": 1561,
      "Ð¸ÑĤÑĢ": 1562,
      "ĠÐ¿ÑĢÐµÐ¶Ð´Ðµ": 1563,
      "ĠÐºÐ½Ð¸Ð³": 1564,
      "ĠÐ¼Ð°Ð»ÑĮ": 1565,
      "ĠÑĢÑıÐ´": 1566,
      "ĠÑĥÐ²ÐµÑĢ": 1567,
      "ĠÐ¿Ð¸Ñģ": 1568,
      "ĠÐ³ÑĢÐ¸Ð³Ð¾ÑĢÐ¸Ð¹": 1569,
      "Ð²Ð°Ð»": 1570,
      "ÑĥÐ»ÑĮ": 1571,
      "ĠÐ¸Ð·Ð²ÐµÑģÑĤ": 1572,
      "ĠÐ½ÑĥÐ¶Ð½Ð¾": 1573,
      "ĠÐ½Ð°Ð³": 1574,
      "ĠÐ³ÐµÐ½ÐµÑĢ": 1575,
      "ÐµÐ½Ð½Ð¾Ðµ": 1576,
      "ÑĢÐ°Ð´": 1577,
      "ĠÑĢÑĭ": 1578,
      "ÐºÐ°Ñı": 1579,
      "ĠÐ¼Ð¾Ñģ": 1580,
      "ĠÐ²ÐµÑĤ": 1581,
      "ĠÐ²ÑĭÑħÐ¾Ð´": 1582,
      "ĠÑĤÐ°ÐºÐ¾Ðµ": 1583,
      "ĠÑıÑģ": 1584,
      "ĠÐ²Ð¿ÐµÑĢÐµÐ´": 1585,
      "ÑģÑĥÐ´": 1586,
      "ĠÐ³Ð»ÑĥÐ¿": 1587,
      "ĠÐ½Ð°ÑħÐ¾Ð´": 1588,
      "Ð°ÑĢÑĮ": 1589,
      "ĠÑģÐ±": 1590,
      "ĠÑįÑĤÐ¸Ñħ": 1591,
      "Ð¾ÑĤÐ¾ÑĢ": 1592,
      "ĠÐ°Ð²": 1593,
      "Ð½Ð¾ÑĪ": 1594,
      "ĠÐ½Ð°Ð±": 1595,
      "Ð¾Ð½ÑĮ": 1596,
      "ĠÑĢÐ°Ð·Ð±": 1597,
      "ĠÐ¾Ð¶Ð¸Ð´": 1598,
      "ĠÐ´Ð°Ð²Ð½Ð¾": 1599,
      "ĠÐ½ÐµÑħ": 1600,
      "ÑģÐµ": 1601,
      "ÑģÑĤÐ²Ðµ": 1602,
      "ĠÐ½ÐµÐ·": 1603,
      "ÐºÐ¸Ð¼": 1604,
      "ĠÑģÐ´": 1605,
      "ĠÐ²ÑĭÐ±": 1606,
      "Ð¾Ð´ÑĥÑĪ": 1607,
      "ÑĤÐµÑĢÐµÑģ": 1608,
      "ĠÐ¿ÑĢÐ¾Ð¿": 1609,
      "Ð°ÐºÐ¾Ð²": 1610,
      "ĠÐ¶Ð´": 1611,
      "ÑıÐ»Ð¸": 1612,
      "ĠÐ¼Ð¸Ñħ": 1613,
      "ĠÑĢÐ¾Ñģ": 1614,
      "ĠÐ²Ð¿ÑĢÐ¾Ñĩ": 1615,
      "ĠÐ²Ð¿ÑĢÐ¾ÑĩÐµÐ¼": 1616,
      "ĠÑĩÐ°": 1617,
      "ĠÐ¿ÑĢÐ¾Ðº": 1618,
      "ĠÐ³Ð¾Ð²Ð¾ÑĢÐ¸Ð»Ð°": 1619,
      "ĠÑĤÐµÐ»": 1620,
      "ĠÐ²ÑĭÑĪ": 1621,
      "Ð³Ð¸": 1622,
      "ĠÐ¸Ð¼ÐµÐ½Ð½Ð¾": 1623,
      "ĠÑĤÐ²Ð¾": 1624,
      "ÐµÐ²Ð°": 1625,
      "Ð¾Ð»ÑĮÐ·": 1626,
      "ĠÐ¿ÑĢÑıÐ¼Ð¾": 1627,
      "ĠÐºÐ°Ð¿": 1628,
      "ĠÑĢÐ°ÑģÑģÐºÐ°Ð·": 1629,
      "Ð»Ð¸ÑĪÐºÐ¾Ð¼": 1630,
      "ĠÐ´Ð½Ñı": 1631,
      "Ð¸ÐºÐ¸": 1632,
      "ĠÐ¿Ð¾ÐºÐ°": 1633,
      "ĠÑģÐµÑģÑĤ": 1634,
      "ĠÑģÐ»Ð¸ÑĪÐºÐ¾Ð¼": 1635,
      "ĠÑģÑĤÐ¾ÑıÐ»": 1636,
      "ĠÐ¿Ð¾Ð´ÑĥÐ¼Ð°Ð»": 1637,
      "ĠÐ´ÑĥÑħ": 1638,
      "ĠÐ¾ÑĤÐ²ÐµÑĤÐ¸Ð»": 1639,
      "ĠÐ¿ÐµÑĩ": 1640,
      "ĠÐºÐ°ÐºÐ¸Ðµ": 1641,
      "ĠÐºÑĥÐ¿": 1642,
      "ĠÐ¾Ð´Ð½Ð¾Ð¹": 1643,
      "ĠÐ½ÐµÐºÐ¾ÑĤÐ¾ÑĢ": 1644,
      "Ð°Ð´ÑĨÐ°ÑĤÑĮ": 1645,
      "Ð¾Ð±ÑĢÐ°Ð¶": 1646,
      "ĠÐ´ÑĥÑĢ": 1647,
      "ĠÐ²Ð¾ÑģÐ¿": 1648,
      "Ð½ÐµÑģ": 1649,
      "ĠÐ¸Ð·Ð¼": 1650,
      "Ð°ÑĤÐ¸": 1651,
      "ĠÑģÐ°Ð¼Ð°": 1652,
      "Ð°Ð½Ð¾": 1653,
      "ÐµÐ½Ð½Ð°Ñı": 1654,
      "ĠÑįÑĤÐ¸Ð¼": 1655,
      "ĠÑģÐ¾Ð»Ð½": 1656,
      "ĠÐ¿Ð¾ÑĪÐµÐ»": 1657,
      "ĠÑĪÐµÐ»": 1658,
      "ĠÐ³Ð¾Ð»Ð¾ÑģÐ¾Ð¼": 1659,
      "ĠÐ¿ÑĢÐ¸ÑħÐ¾Ð´": 1660,
      "ÑĤÐ°ÐºÐ¸": 1661,
      "ĠÐ³Ð»ÑıÐ´Ñı": 1662,
      "ÑĤÐ¾ÑĢÐ°": 1663,
      "ĠÐ¾Ð½Ð¾": 1664,
      "Ð¼ÐµÑĤ": 1665,
      "ÑİÑĪ": 1666,
      "ÑĢÐ°Ñĩ": 1667,
      "Ð²Ð¾Ð·": 1668,
      "ÑĭÐ¿": 1669,
      "ĠÐ³Ð»ÑĥÐ±": 1670,
      "ĠÑģÐ¿ÑĢÐ°ÑĪ": 1671,
      "ĠÐ´ÐµÑģÑı": 1672,
      "ĠÐ½Ð°Ð·Ð°Ð´": 1673,
      "Ð°Ð½Ð½Ð¾": 1674,
      "ĠÐ²Ð¾ÑĢÐ¾ÑĤ": 1675,
      "ÑĩÐµÑĤ": 1676,
      "ĠÑĢÐ¾ÑģÑĤ": 1677,
      "Ð²ÐµÑĢÐ´": 1678,
      "ĠÐ½Ð¾Ð³Ð¸": 1679,
      "ĠÐ¿ÑĢÐ¾Ð´Ð¾Ð»Ð¶Ð°Ð»": 1680,
      "ĠÑģÑĥÐ¼": 1681,
      "ÐµÐ¶Ð´": 1682,
      "Ð¸Ð²ÑĪÐ¸ÑģÑĮ": 1683,
      "ÑĤÐ¸ÑĢ": 1684,
      "Ð½ÐµÐ³Ð¾": 1685,
      "ÑĨÐ¸": 1686,
      "ĠÑĢÐµÐ·": 1687,
      "Ð¸ÐºÐ¾Ð²": 1688,
      "ĠÐ¿Ð¾Ð¶Ð°Ð»ÑĥÐ¹": 1689,
      "ÐµÐ»ÐµÐ½": 1690,
      "ĠÐ¿ÑĢÐ¸Ñĩ": 1691,
      "Ð²Ð¸": 1692,
      "ÑĭÐ»ÑĮ": 1693,
      "ĠÐ½Ð°ÑĢÐ¾Ð´": 1694,
      ".--": 1695,
      "Ð»ÐµÐº": 1696,
      "ĠÐ²ÐµÑģÐµÐ»": 1697,
      "ĠÐ´Ð»Ð¸Ð½": 1698,
      "ĠÐ¾Ð´Ð½Ð¾Ð³Ð¾": 1699,
      "ĠÐ²ÑĭÐ´": 1700,
      "ÑıÑģÐ½": 1701,
      "ĠÐºÐ°ÐºÐ°Ñı": 1702,
      "ĠÑĩÑĥÑĤÑĮ": 1703,
      "ĠÐ¸ÑģÐ¿ÑĥÐ³": 1704,
      "ĠÑĨÐ²ÐµÑĤ": 1705,
      "ĠÐ¼Ð¾ÐµÐ¹": 1706,
      "Ð´Ð°ÑĤ": 1707,
      "ĠÑĢÐ°Ð·ÑĥÐ¼": 1708,
      "ĠÐ¾Ð·": 1709,
      "ĠÐºÑĢÐµÐ¿": 1710,
      "ĠÐ¸Ð²Ð°Ð½Ð¾Ð²Ð¸Ñĩ": 1711,
      "ÑĪÐµÐ¹": 1712,
      "ĠÑģÐ¾ÑģÑĤÐ¾": 1713,
      "Ð¾Ð¼Ðµ": 1714,
      "ĠÐ¼ÐµÐ»": 1715,
      "ĠÐ¾ÑģÑĤÑĢ": 1716,
      "ĠÐºÐ¾Ð½Ñĩ": 1717,
      "ĠÑģÐ¾Ð½": 1718,
      "ÐµÐ½ÑĮÐºÐ°": 1719,
      "ĠÐ»Ð¸ÑĪÑĮ": 1720,
      "ÐµÐ³Ð¾Ð´Ð½Ñı": 1721,
      "ĠÑĢÐµÐ²": 1722,
      "ĠÐ»Ð°Ñģ": 1723,
      "ĠÐ´Ð¸Ð²": 1724,
      "ĠÑĤÐ¾Ð²Ð°ÑĢ": 1725,
      "ÐºÐ¸Ñħ": 1726,
      "ĠÐ±ÑĥÐ¼": 1727,
      "ĠÑĢÐ°Ð½": 1728,
      "ĠÐ¿ÑĢÐ¸Ð³": 1729,
      "ĠÑĥÐ·Ð½": 1730,
      "ĠÐµÐ²": 1731,
      "ĠÐ·Ð°Ñħ": 1732,
      "Ð²Ð¸Ð½": 1733,
      "Ð¾Ð»Ð¾": 1734,
      "ĠÐ²Ð¾Ð·Ð´": 1735,
      "ĠÑģÐµÐ³Ð¾Ð´Ð½Ñı": 1736,
      "ĠÐºÐ¾ÑĤÐ¾ÑĢÑĥÑİ": 1737,
      "ĠÑĢÐµÑĩ": 1738,
      "ÑĨÐ¸Ð¸": 1739,
      "ĠÐ´Ð¾Ñĩ": 1740,
      "ÐºÐ¾Ðµ": 1741,
      "ĠÐ²Ð½Ñĥ": 1742,
      "ĠÑģÑĩÐ°ÑģÑĤ": 1743,
      "ÐµÑĢÐ±": 1744,
      "ĠÐºÑĢÐ¸Ñĩ": 1745,
      "ĠÐ¿ÑĢÐµÐºÑĢÐ°Ñģ": 1746,
      "ÐµÐ»ÐµÐ¹": 1747,
      "ÑģÑĤÐ°": 1748,
      "ĠÑĢÐµÐ±": 1749,
      "Ð¸ÐºÐ°": 1750,
      "ÑĪÐµÐ³Ð¾": 1751,
      "ÑĥÐ³Ð¾": 1752,
      "ĠÐ·Ð½Ð°ÐµÑĤ": 1753,
      "ĠÐ²ÑĤÐ¾ÑĢ": 1754,
      "ĠÐ¼Ð°ÑĤÐµÑĢÐ¸": 1755,
      "ĠÑıÑĢ": 1756,
      "ĠÑĤÑĥ": 1757,
      "ĠÑĢÐ¾Ð¼": 1758,
      "ĠÐºÐ¾ÑĤÐ¾ÑĢÐ¾Ðµ": 1759,
      "ĠÐ²ÑĭÑģÐ¾Ðº": 1760,
      "ĠÐ¾ÑĦÐ¸ÑĨÐµÑĢ": 1761,
      "ĠÑģÑİ": 1762,
      "ĠÐ¼Ð°Ðº": 1763,
      "Ð½ÐµÑĤ": 1764,
      "Ð°Ð½Ð´ÑĢ": 1765,
      "ĠÐ´Ð²Ð¸Ð¶": 1766,
      "ĠÑĤÐµÑħ": 1767,
      "ĠÐ»Ð¸ÑĨÐ°": 1768,
      "ĠÑģÐ¾Ð»Ð´Ð°ÑĤ": 1769,
      "ĠÑģÐºÐ¾ÑĢÐ¾": 1770,
      "ĠÑģÑĩÐ¸ÑĤ": 1771,
      "ĠÐ²ÑĭÐ³": 1772,
      "ĠÐ²ÑģÐ¿Ð¾Ð¼Ð½": 1773,
      "ĠÐ³Ð¾ÑĤÐ¾Ð²": 1774,
      "ĠÐ·Ð½Ð°ÐµÑĤÐµ": 1775,
      "ĠÐ¼Ð¾Ðµ": 1776,
      "ĠÐ¸Ð·Ð±": 1777,
      "ĠÐ½ÐµÑĢ": 1778,
      "ĠÐ»Ð°Ð´": 1779,
      "ĠÐ·Ð°Ð¼ÐµÑĩ": 1780,
      "ĠÐ²ÑĭÑĪÐµÐ»": 1781,
      "ĠÐ½Ð°ÑĢ": 1782,
      "ĠÑģÐµÐº": 1783,
      "ĠÑĢÑĥÐº": 1784,
      "ĠÐ²Ð¾ÑģÐº": 1785,
      "ĠÐ¾Ð±ÐµÐ´": 1786,
      "ĠÐ´Ð²Ðµ": 1787,
      "ĠÐ¸Ð½Ð¾Ð³Ð´Ð°": 1788,
      "ÑģÐºÐ°Ñı": 1789,
      "ĠÐ¾ÑĤÐ²ÐµÑĩÐ°Ð»": 1790,
      "ÑĤÑĢÐ°": 1791,
      "Ð¸ÐµÑħ": 1792,
      "ÑĤÐ¾ÑĢÐ¾Ð¶": 1793,
      "ĠÐ¿Ð»Ð°ÑĤ": 1794,
      "ÑģÑĤÑĮÑİ": 1795,
      "Ð¾ÑĢÐ°": 1796,
      "ĠÐ¿ÑĮÐµÑĢ": 1797,
      ").": 1798,
      "Ġ'": 1799,
      "ÑģÑıÑĩ": 1800,
      "ĠÐºÐ¾ÑĤÐ¾ÑĢÑĭÑħ": 1801,
      "ĠÑĤÐ¾Ð»Ð¿": 1802,
      "ĠÐµÐ¶": 1803,
      "ĠÐ·Ð°ÑĩÐµÐ¼": 1804,
      "ĠÐ¿ÑĢÐ¸ÐµÑħ": 1805,
      "Ð»Ð¾Ð¼": 1806,
      "Ð°Ð²ÑĪÐ¸Ð¹": 1807,
      "ĠÑĢÐ°ÑģÑģÐºÐ°Ð·ÑĭÐ²": 1808,
      "ĠÐ½Ð¸Ð¼Ð¸": 1809,
      "Ð·Ð°": 1810,
      "ÑģÐºÐ¾Ð¼": 1811,
      "ĠÐ¸Ð½ÑĤÐµÑĢÐµÑģ": 1812,
      "Ð¾Ð±Ð¾Ð´": 1813,
      "ÐµÑģÑģ": 1814,
      "ĠÐ²Ñĩ": 1815,
      "Ð»ÑĥÑĪ": 1816,
      "ĠÐ´Ð¾Ð»Ð¶ÐµÐ½": 1817,
      "ĠÐ¼Ð¾ÑģÐº": 1818,
      "ĠÑģÐ¾Ð³Ð»Ð°Ñģ": 1819,
      "Ð½Ð¾ÑģÑĤÑĮÑİ": 1820,
      "ĠÐ»Ð¸ÑĤ": 1821,
      "ĠÐ±Ð»Ð¸Ð·": 1822,
      "ĠÐ°Ð»ÐµÐºÑģÐ°Ð½Ð´ÑĢ": 1823,
      "ĠÐ½ÐµÐ¿ÑĢÐ¸ÑıÑĤ": 1824,
      "ÑĥÑĢÐ³": 1825,
      "ĠÐ´ÐµÐ½": 1826,
      "ĠÐ¼Ð°Ð»Ð¾": 1827,
      "ĠÐºÐ¾Ð³Ð¾": 1828,
      "ĠÐ²ÑĢÐµÐ¼ÐµÐ½Ð¸": 1829,
      "ĠÐ¾Ð±ÑīÐµ": 1830,
      "ĠÐ²Ð°ÑĢÐ²Ð°ÑĢ": 1831,
      "ĠÑģÐºÐ¾Ð»ÑĮÐºÐ¾": 1832,
      "ĠÐ¾Ð±ÑĢÐ°Ñī": 1833,
      "ĠÐ´Ð²ÑĥÑħ": 1834,
      "ĠÐ´Ð¾Ð²Ð¾Ð»ÑĮÐ½Ð¾": 1835,
      "Ð¾Ð²Ð°Ð»Ð°": 1836,
      "Ð¾Ð»Ñİ": 1837,
      "ÐµÑĢÑĤÐ²": 1838,
      "ĠÑĢÑĥÐºÐ°Ð¼Ð¸": 1839,
      "Ð¾Ð½Ñĩ": 1840,
      "ĠÐ°Ñħ": 1841,
      "ĠÑģÐ¾Ð±Ð¾Ð¹": 1842,
      "ĠÑĪÐµÐ¿": 1843,
      "Ð¾Ð¼Ð¸Ð½Ð°": 1844,
      "ĠÐ»ÐµÑģ": 1845,
      "ĠÐ²ÑģÑĤÑĢÐµÑĩ": 1846,
      "ĠÐ¶Ð¸ÑĤÑĮ": 1847,
      "ĠÐ¿ÐµÑĢÐ²ÑĭÐ¹": 1848,
      "ĠÐºÑĢÐµÑģÑĤ": 1849,
      "ĠÑģÐ»Ð¾Ð²Ð¾": 1850,
      "ĠÑħÐ¾ÑĩÑĥ": 1851,
      "ĠÐ½Ð¸ÐºÑĤÐ¾": 1852,
      "ĠÑĦÑĢÐ°Ð½ÑĨÑĥÐ·": 1853,
      "ĠÐ´Ð°Ð»ÑĮ": 1854,
      "ĠÐ³Ð¾Ð»Ð¾Ð²Ð¾Ð¹": 1855,
      "ĠÐ¼ÑĭÑģÐ»Ð¸": 1856,
      "ĠÐºÐ°Ð±": 1857,
      "Ð¸ÑĨÐ°": 1858,
      "ĠÐ±ÑĥÐ´Ñĥ": 1859,
      "ĠÐ¼Ð°Ð»ÐµÐ½ÑĮÐº": 1860,
      "ÐºÐ¾Ñİ": 1861,
      "ĠÑĥÐ´Ð°ÑĢ": 1862,
      "Ð¾Ð»Ð½": 1863,
      "Ð¸ÑĤÐ°": 1864,
      "Ð¾Ð¿ÑĭÑĤ": 1865,
      "ĠÐ´Ð¾Ð½": 1866,
      "ĠÐ½ÐµÑİ": 1867,
      "ÑĥÑı": 1868,
      "ĠÐ¼Ð°Ñģ": 1869,
      "ĠÐ´ÑĢÐ¾Ð¶": 1870,
      "ĠÑģÐ¸Ð´ÐµÐ»": 1871,
      "ĠÐºÑĢÐ¾Ð¼Ðµ": 1872,
      "Ð°Ð½Ð½ÑĭÐ¹": 1873,
      "ĠÐ²ÑĢ": 1874,
      "ĠÐ±Ð°ÑĤ": 1875,
      "ĠÐ¾ÑĤÑĨÐ°": 1876,
      "ĠÐºÐ°ÐºÐ¾Ðµ": 1877,
      "ÑĢÑı": 1878,
      "Ð°Ð½Ñĭ": 1879,
      "Ð¾ÑģÑĤÑĮÑİ": 1880,
      "Ð´ÐµÑĤ": 1881,
      "ĠÐ±Ð»ÐµÐ´": 1882,
      "Ð»Ñĥ": 1883,
      "ĠÐ½Ð¾ÑĩÑĮ": 1884,
      "Ð¸Ð²Ð°Ð»Ð°": 1885,
      "Ð¸ÑģÑĤÐ¾": 1886,
      "ĠÐ¼Ð¾Ð³Ð»Ð°": 1887,
      "ĠÐ½ÐµÐ½": 1888,
      "ĠÐ·Ð°ÑĤÐµÐ¼": 1889,
      "ÑģÑĤÐ²Ð¸Ðµ": 1890,
      "ÑĭÐ²Ð°ÑĤÑĮ": 1891,
      "ĠÑĤÑĭÑģÑıÑĩ": 1892,
      "ĠÐ¿ÑıÑĤÑĮ": 1893,
      "ÑĪÐ¸Ñħ": 1894,
      "ĠÑĤÐ¾Ð²Ð°ÑĢÐ¸Ñī": 1895,
      "ĠÑīÐµÐº": 1896,
      "Ð½Ð¸ÐºÐ¸": 1897,
      "Ð¸Ð²Ð°ÑıÑģÑĮ": 1898,
      "ÑĨÐµÐ¼": 1899,
      "ĠÑĪÑĤ": 1900,
      "ÑĪÐ¸Ðµ": 1901,
      "ĠÐ´Ñĥ": 1902,
      "ĠÐºÐ¾Ð¼Ð½Ð°ÑĤÐµ": 1903,
      "ĠÐ¿ÑĢÐ¸Ð±Ð°Ð²": 1904,
      "Ð²Ð¾Ð´": 1905,
      "ĠÑģÑĤÐ¾ÑĢÐ¾Ð½Ñĭ": 1906,
      "ĠÐ¼Ð¾ÐµÐ³Ð¾": 1907,
      "ÑģÐºÐ¸Ð¼": 1908,
      "Ð½Ð°ÑĤÑĮ": 1909,
      "ĠÐ¿ÑĢÐ¸Ð»": 1910,
      "ĠÐ´Ð¾Ð±": 1911,
      "ĠÐ³ÑĢÑĥÐ´": 1912,
      "Ð°Ð»ÑĮÐ½Ð¾": 1913,
      "Ð°ÐºÐ°": 1914,
      "ÑģÐºÐ¸": 1915,
      "ĠÑģÑĥÑīÐµ": 1916,
      "ÐºÐ¾Ð³Ð¾": 1917,
      "ĠÑĢÐ°ÑģÑĤ": 1918,
      "ĠÐ¿Ð¾Ð´Ð½ÑıÐ»": 1919,
      "ĠÐ¼ÑĥÑĩ": 1920,
      "ĠÐ¾ÑģÐ²": 1921,
      "ĠÐ´Ð¾Ð»Ð¶Ð½Ð¾": 1922,
      "Ð¿Ð¾Ð»": 1923,
      "ĠÐ¾ÐºÐ¾Ð»Ð¾": 1924,
      "Ð¾ÑĢÐ¼": 1925,
      "ĠÑģÐºÑĢ": 1926,
      "ĠÐ´Ð²ÐµÑĢÐ¸": 1927,
      "ĠÐ¼Ð¾ÑģÐºÐ²": 1928,
      "Ð¾ÑħÐ¾ÑĤ": 1929,
      "ĠÐ¿Ð°Ð¿": 1930,
      "ĠÑĢÐ°Ð·Ð²Ðµ": 1931,
      "ÐµÑĩÐ°ÑĤ": 1932,
      "ĠÐ¼Ð½Ð¾Ð³": 1933,
      "ĠÐ±Ð»Ð°Ð³Ð¾Ð´": 1934,
      "ĠÐ·ÑĥÐ±": 1935,
      "ĠÐ¾Ð±Ð»": 1936,
      "ĠÐ¼ÑĭÑģÐ»ÑĮ": 1937,
      "ĠÐ³Ð¾ÑģÑĥÐ´": 1938,
      "ĠÐ°Ð½Ð´ÑĢÐµÐ¹": 1939,
      "ĠÑħÐ¾Ð·ÑıÐ¹": 1940,
      "ĠÐ¿ÑĢÐ¾Ð¼": 1941,
      "ĠÑģÐ°Ð¼Ð¾Ð¼": 1942,
      "ĠÑģÐ¼Ð¾ÑĤÑĢÐµÐ»": 1943,
      "Ð±Ñĭ": 1944,
      "ĠÐ¿ÑĢÐ¸ÐºÐ°Ð·": 1945,
      "ĠÐ¿ÐµÑĢÐµÑģÑĤ": 1946,
      "ĠÑĩÐ°ÑģÑĤÐ¾": 1947,
      "ÑģÐºÑĥÑİ": 1948,
      "ĠÐµÑħ": 1949,
      "ĠÐ¿ÑĥÑĤ": 1950,
      "ĠÑĩÑĢÐµÐ·": 1951,
      "ĠÑģÐ¼Ðµ": 1952,
      "ĠÐºÐ¾Ð¼Ð½Ð°ÑĤÑĥ": 1953,
      "ĠÐ²Ð°Ð»": 1954,
      "Ð½Ð°ÑĤ": 1955,
      "ĠÐºÐ¾Ñģ": 1956,
      "ĠÑĤÐ¾Ð»ÑģÑĤ": 1957,
      "ĠÐ·Ð°ÑģÑĤÐ°Ð²": 1958,
      "ĠÐ½ÑĢÐ°Ð²": 1959,
      "ĠÐ¼Ð³": 1960,
      "Ð¾ÑĦ": 1961,
      "Ð°Ñī": 1962,
      "ĠÐ³ÐµÐ½ÐµÑĢÐ°Ð»": 1963,
      "Ð½Ð¸Ñħ": 1964,
      "ÑĥÑĪÐºÐ¸": 1965,
      "ĠÐ·Ð°Ð¼ÐµÑĤÐ¸Ð»": 1966,
      "ĠÐ¼Ð½Ð¾Ð¹": 1967,
      "ĠÑģÐ¼ÐµÑĪ": 1968,
      "ĠÐ³Ð¾Ð²Ð¾ÑĢÑİ": 1969,
      "ĠÑĩÑĥÐ´": 1970,
      "ĠÐºÐ¾ÑĢÐ¾ÑĤ": 1971,
      "Ð¼Ð°ÑĤÑĢ": 1972,
      "ĠÐ´Ð¾Ð²": 1973,
      "ĠÐºÑĢÐ°Ð¹": 1974,
      "ÑģÐºÐ°": 1975,
      "ĠÐ°Ð´": 1976,
      "ĠÑģÐ¿ÑĢÐ¾ÑģÐ¸Ð»Ð°": 1977,
      "ÑĢÐ¸Ðº": 1978,
      "ĠÑĢÐ°Ð·Ð¼": 1979,
      "ĠÑĥÑĪ": 1980,
      "ÐµÐ¶Ð°Ð»": 1981,
      "Ð¸Ð²Ð°Ð»Ð¸": 1982,
      "ÐµÐ»Ñİ": 1983,
      "Ð¾Ð¶Ð¸Ð´": 1984,
      "ĠÐ·Ð°Ð²ÑĤÑĢÐ°": 1985,
      "ĠÐ²Ð¾Ð·Ð¼Ð¾Ð¶": 1986,
      "ĠÑĪÑĥÐ¼": 1987,
      "ĠÐ²ÑĭÐ·": 1988,
      "ĠÑĢÐ°ÑģÐº": 1989,
      "ĠÐ´ÐµÐ¹ÑģÑĤÐ²Ð¸ÑĤÐµÐ»ÑĮÐ½Ð¾": 1990,
      "ĠÐ¿ÐµÑĢÐµÐ²": 1991,
      "ĠÐ²Ð·Ð´Ð¾Ñħ": 1992,
      "ÑıÑĤÐ½Ð¾": 1993,
      "ĠÐ½Ð°Ð¿ÑĢÐ°Ð²": 1994,
      "ĠÑıÐ·": 1995,
      "ĠÑģÐ²Ð¾ÐµÐ¼": 1996,
      "ĠÐ´Ð¾Ð³": 1997,
      "Ð°Ð·Ð´": 1998,
      "ĠÐ¾Ð½ÑĬ": 1999,
      "ĠÐ²Ð°Ð¶": 2000,
      "ĠÐ²ÑģÑĤÑĢÐµÑĤ": 2001,
      "ĠÐ¶ÐµÐ½ÑīÐ¸Ð½Ð°": 2002,
      "ĠÐ²ÐµÑī": 2003,
      "ĠÐ¼Ð°Ð»ÑĮÑĩÐ¸Ðº": 2004,
      "ĠÐ¼Ð¾Ð»ÑĩÐ°": 2005,
      "ĠÐ½Ð°Ð¹": 2006,
      "ĠÑĢÐ¾Ð·": 2007,
      "ĠÑģÐ°Ð¼Ð¸": 2008,
      "Ð°ÑİÑĤÑģÑı": 2009,
      "ĠÐ²Ð¸Ð´Ð½Ð¾": 2010,
      "ĠÐ¼ÐµÑģÑĤÐ¾": 2011,
      "ĠÐ½Ð°Ð»": 2012,
      "ĠÐ´ÐµÐ»Ð°ÑĤÑĮ": 2013,
      "ĠÑĢÑıÐ´Ð¾Ð¼": 2014,
      "Ð¾Ð»Ð¾ÑĤ": 2015,
      "ĠÑģÐ¸Ð½": 2016,
      "ĠÑĢÑĥÐºÐ¾Ð¹": 2017,
      "ĠÐ²Ð¾Ð²": 2018,
      "ĠÑĩÑĥÐ²ÑģÑĤÐ²Ð¾Ð²Ð°Ð»": 2019,
      "ĠÑĤÐ°ÐºÐ¸Ðµ": 2020,
      "ĠÐ²Ð·ÑıÐ»": 2021,
      "ĠÐ°Ð½Ð³": 2022,
      "ĠÐ¿Ð¾Ð´Ð½Ñı": 2023,
      "ĠÐ¶ÐµÑģÑĤ": 2024,
      "ĠÑĥÑģÐ¼": 2025,
      "ĠÑĩÐµÑĤÑĭÑĢ": 2026,
      "ĠÐ·Ð´Ð¾ÑĢÐ¾Ð²": 2027,
      "ĠÐ¿ÐµÑĢÐµÐ±": 2028,
      "ĠÐ¿ÑĢÐ°Ð²Ð´Ð°": 2029,
      "ĠÑĤÐ¾Ð¹": 2030,
      "ĠÐ´Ð°ÑĢ": 2031,
      "ĠÑģÑĤÐ¾ÑĢÐ¾Ð½Ñĥ": 2032,
      "ĠÐ³Ð¾Ð»ÑĥÐ±": 2033,
      "ĠÐ³Ð¾Ð´Ð°": 2034,
      "ĠÐ¿ÑĢÐ¾Ñī": 2035,
      "ĠÑģÑĤÐ°Ð»Ð°": 2036,
      "ĠÐ³Ð¾Ð²Ð¾ÑĢÐ¸Ð»Ð¸": 2037,
      "ĠÐ¾ÐºÐ°Ð·": 2038,
      "Ð¸Ð¶Ñĥ": 2039,
      "ĠÑĤÐ°ÐºÐ¸Ð¼": 2040,
      "ĠÐºÐ²Ð°ÑĢ": 2041,
      "ĠÑĥÑģÑĤ": 2042,
      "ĠÐ¿ÑĢÐ¸ÑĤ": 2043,
      "ĠÐ½ÐµÐ¸Ð·": 2044,
      "ÑĪÐµÐµ": 2045,
      "ĠÐ¼Ð¾Ð»Ð¾Ð´Ð¾Ð¹": 2046,
      "ĠÑĤÐ¾ÑĢÐ¾Ð¿": 2047,
      "ĠÐ²Ð¸Ð´ÐµÑĤÑĮ": 2048,
      "ÐµÑħÐ°Ð»": 2049,
      "ĠÐ²Ð¾Ð·Ð´ÑĥÑħ": 2050,
      "ĠÐ´ÐµÐ»Ðµ": 2051,
      "ĠÐ¼ÐµÑĩ": 2052,
      "ĠÑģÐºÐ²Ð¾Ð·": 2053,
      "ĠÐ·Ð°Ð´ÑĥÐ¼": 2054,
      "ĠÑĤÐ°Ð½": 2055,
      "ĠÐºÐ°ÐºÐ¸Ð¼": 2056,
      "ĠÑģÐ²Ð¸Ð´": 2057,
      "ÑģÑĤÐ¾": 2058,
      "ĠÑģÐ°Ð¼Ð¾Ð³Ð¾": 2059,
      "ÑĮÐ¸": 2060,
      "ĠÐ°Ð½Ð½Ð°": 2061,
      "ĠÐ²Ð°Ð¼Ð¸": 2062,
      "ĠÐ³ÐµÑĢ": 2063,
      "ĠÐ»Ð¸Ð·": 2064,
      "ĠÑĥÑħ": 2065,
      "ĠÑģÑĤÐ°Ð½Ð¾Ð²": 2066,
      "ĠÑģÐµÐ»": 2067,
      "ĠÐ²Ð°Ð½": 2068,
      "ĠÐ¿ÐµÑĢÐµ": 2069,
      "ĠÑģÑĤÑĢÐ°Ñħ": 2070,
      "ĠÐ±ÐµÐ³": 2071,
      "ÑīÐµÐµ": 2072,
      "Ð¾Ð¼Ð¸Ð½": 2073,
      "ĠÑģÑĤÐµÐ½": 2074,
      "ĠÑĦÐ¸Ð»": 2075,
      "Ð½Ð¸ÑĨÑĭ": 2076,
      "ĠÐ½Ñĭ": 2077,
      "ĠÑįÐº": 2078,
      "ÑĪÐ°Ñı": 2079,
      "ÑĭÐ³": 2080,
      "ĠÐ´Ð°Ð»ÐµÐº": 2081,
      "ÑıÐ»Ð°ÑģÑĮ": 2082,
      "ÑģÑĤÐ²Ñĥ": 2083,
      "Ð½Ð¸ÑĨÐ°": 2084,
      "ĠÐ¼ÐµÑģÑı": 2085,
      "ĠÐ¿Ñĥ": 2086,
      "Ð¼ÑĥÑĢ": 2087,
      "ÐµÑĢÐ±ÑĥÑĢÐ³": 2088,
      "Ð¸Ð½Ñı": 2089,
      "ÐµÐ½ÑĮÐºÐ¸Ð¹": 2090,
      "ĠÐ¿Ð¾ÑħÐ¾Ð¶": 2091,
      "ĠÐ¸ÑģÑĤ": 2092,
      "Ð¾ÑĤÐ°": 2093,
      "ĠÐ»Ð¸ÑĨÐµ": 2094,
      "ĠÐ¾ÐºÐ½Ð°": 2095,
      "ĠÐ¿Ð¸ÑģÑĮÐ¼Ð¾": 2096,
      "ĠÐ¼Ð°Ð¼": 2097,
      "ĠÑĩÑĥÐ¶": 2098,
      "ĠÐ¿Ð»Ð°ÑĤÑĮ": 2099,
      "ĠÑĤÑĢÐµÐ²": 2100,
      "ĠÐ·Ð½Ð°Ñĩ": 2101,
      "ĠÐ¿ÑĢÐ¸ÑģÑĤ": 2102,
      "ĠÐ¼Ð³Ð½Ð¾Ð²": 2103,
      "ĠÑĤÐ²ÐµÑĢÐ´": 2104,
      "Ð¾Ð±Ñī": 2105,
      "ÐµÐ½Ð½ÑĥÑİ": 2106,
      "ĠÐµÐ´Ð²Ð°": 2107,
      "ĠÐ¾Ð²": 2108,
      "ĠÑģÐ¾Ð±Ð¾Ñİ": 2109,
      "ĠÐ¼Ð¾Ð¸": 2110,
      "Ð»ÑıÑĤÑĮ": 2111,
      "ÑıÑĤÐµÐ»ÑĮ": 2112,
      "Ð¾Ð»Ñĩ": 2113,
      "ĠÐ¿Ð¾ÑĤÑĢ": 2114,
      "ĠÐµÐ´Ð¸Ð½": 2115,
      "ĠÑģÐ»Ð¾Ð²Ð½Ð¾": 2116,
      "ĠÐ´ÐµÐ½ÑĮÐ³Ð¸": 2117,
      "Ð¸ÑĤÐ¾": 2118,
      "ĠÐ¿Ð¾ÑĩÑĥÐ²ÑģÑĤÐ²": 2119,
      "ĠÐ¿ÐµÑĤÐµÑĢÐ±ÑĥÑĢÐ³": 2120,
      "ĠÐ²ÐµÑĢÑħ": 2121,
      "ÑĢÐ°Ð·Ñĥ": 2122,
      "ĠÑĦÐµÐ´Ð¾ÑĢ": 2123,
      "ĠÐ»ÑİÐ±Ð¾Ð²ÑĮ": 2124,
      "Ð³Ð°": 2125,
      "ĠÐ½Ð°ÑģÑĤÐ¾": 2126,
      "ĠÑģÑĩÐ°ÑģÑĤÐ»Ð¸Ð²": 2127,
      "ĠÑĤÐµÑĤ": 2128,
      "Ð½ÑĥÐ²ÑĪÐ¸ÑģÑĮ": 2129,
      "ĠÐ´Ð°Ð²ÑĭÐ´": 2130,
      "Ð¸Ð²Ð°ÐµÑĤ": 2131,
      "ĠÐ¼ÐµÑĪ": 2132,
      "ĠÐ¾ÑĤÐ¿ÑĢÐ°Ð²": 2133,
      "ĠÑģÐ¾ÑĢ": 2134,
      "ĠÑģÐµÐ´": 2135,
      "ĠÐ¿Ð»Ð°": 2136,
      "ĠÐ¾Ð´Ð½Ñĥ": 2137,
      "ĠÐºÐ°ÑĢÑĤ": 2138,
      "ĠÑĤÑıÐ¶ÐµÐ»": 2139,
      "ĠÑģÐ»Ð°Ð±": 2140,
      "ĠÐºÐ¾ÑĤÐ¾ÑĢÐ¾Ð¼": 2141,
      "ĠÐ¾Ð¿Ð°Ñģ": 2142,
      "ĠÐ´Ð¾ÐºÑĤÐ¾ÑĢ": 2143,
      "ĠÐ²Ð¾Ðº": 2144,
      "ĠÐ´Ð¾Ð¼Ð¾Ð¹": 2145,
      "ĠÑģÐµÑĢÑĮ": 2146,
      "Ð±Ñĥ": 2147,
      "ÑĭÑĩÐ°Ð¹": 2148,
      "ĠÑĢÐµÐ´": 2149,
      "Ð¾Ð±ÑīÐµ": 2150,
      "ĠÐ³Ð¾Ð²Ð¾ÑĢÑıÑĤ": 2151,
      "ĠÐ¸ÑģÑĤÐ¾ÑĢ": 2152,
      "ĠÐ½Ð°Ð·ÑĭÐ²": 2153,
      "ĠÑģÐµÑĢÐ³": 2154,
      "ĠÐ»Ð¸ÑĨÐ¾Ð¼": 2155,
      "ĠÐ¼Ð¸Ð¼Ð¾": 2156,
      "Ð¾ÑĪÐ»Ð°": 2157,
      "ĠÑĤÑĢÐµÐ±": 2158,
      "ÑĤÐ¾Ð¼": 2159,
      "ĠÐ³Ð¾ÑĢÑıÑĩ": 2160,
      "Ð¾Ð²Ð°Ð»Ð¸": 2161,
      "ĠÑĩÑĥÐ²ÑģÑĤÐ²Ð¾": 2162,
      "ĠÐ²Ð°ÑĪÐµ": 2163,
      "ĠÐ±Ð°Ð»": 2164,
      "ĠÑĥÐ»ÑĭÐ±Ð°ÑıÑģÑĮ": 2165,
      "ĠÑģÐ¾Ñĩ": 2166,
      "Ð°Ð´Ð¸": 2167,
      "ĠÑģÐ»Ð°Ð²": 2168,
      "Ð¾ÑĤÑĭ": 2169,
      "ĠÐ±Ð¾ÑĢÐ¾Ð´": 2170,
      "Ð¾ÑģÐ¾Ð±": 2171,
      "Ð½Ð¸Ð¸": 2172,
      "ĠÐ»Ð¸ÑĪ": 2173,
      "ĠÐ»Ð°Ð²": 2174,
      "ĠÐ·Ð½Ð°ÑĤÑĮ": 2175,
      "ĠÐ¿ÑĢÐ¸Ð½Ð¸Ð¼": 2176,
      "ĠÑĤÐ¾Ð±": 2177,
      "ĠÐ¿Ð¾Ð»Ð¾Ð²": 2178,
      "Ð°ÑĤÑĭÐ¹": 2179,
      "ĠÑģÐ´ÐµÐ»Ð°ÑĤÑĮ": 2180,
      "ĠÐºÐ°Ð¶Ð´ÑĭÐ¹": 2181,
      "ĠÐ¼ÑıÐ³": 2182,
      "Ð³Ð¾ÑĢ": 2183,
      "Ð¾ÑĤÐ¸Ð²": 2184,
      "ÑģÐ°": 2185,
      "ĠÑħÑĥÐ´": 2186,
      "ĠÐ¿Ð¾ÑģÐ¿": 2187,
      "ĠÑĪÑĥÑĤ": 2188,
      "ĠÐ¾ÑĤÐ½Ð¾ÑĪ": 2189,
      "ĠÐ¾Ð±ÑĬÑıÑģÐ½": 2190,
      "ĠÐ¾Ñī": 2191,
      "Ð±Ð°": 2192,
      "ĠÑĦÐ»": 2193,
      "Ð¾Ð²Ñĥ": 2194,
      "ĠÐ·Ð½Ð°ÐµÑĪÑĮ": 2195,
      "Ð¾ÑģÑĤÐ°Ð²": 2196,
      "ĠÐ·Ð°Ð½Ð¸Ð¼": 2197,
      "ĠÐ±ÑĥÑĢ": 2198,
      "ĠÐ·Ð½Ð°ÑĩÐ¸ÑĤ": 2199,
      "Ð¸Ð½ÑĥÐ»": 2200,
      "ÑĢÐ¸ÑĩÐ°Ð»": 2201,
      "ĠÐ¼Ð¾Ð½": 2202,
      "ĠÐ¸ÑģÐ¿ÑĭÑĤ": 2203,
      "Ð²Ð¾Ð»": 2204,
      "ÐµÑĢÐ´": 2205,
      "ĠÐ½ÐµÐ¼Ð½Ð¾Ð³Ð¾": 2206,
      "ĠÑģÐ²Ð¾Ð±Ð¾Ð´": 2207,
      "Ð°Ð´ÑĮ": 2208,
      "ÑĭÑģ": 2209,
      "Ð°Ð½Ðµ": 2210,
      "ĠÐ°ÑĤ": 2211,
      "Ð¼Ð¾ÑĤÑĢÑı": 2212,
      "ĠÐ´ÑĭÐ¼": 2213,
      "Ð¸Ð¼ÑģÑı": 2214,
      "ĠÐºÐ¾Ð¼Ð½Ð°ÑĤÑĭ": 2215,
      "ĠÐ¿ÑĢÐ¾Ð³Ð¾Ð²Ð¾ÑĢÐ¸Ð»": 2216,
      "ĠÑģÐºÐ²Ð¾Ð·ÑĮ": 2217,
      "ĠÐ´ÑĢÑĥÐ¶": 2218,
      "ĠÐ¼Ð°ÑĪ": 2219,
      "Ð¸Ð²Ð¾": 2220,
      "ĠÑģÑĤÐ°Ð»Ð¸": 2221,
      "ĠÑģÐ²ÑıÐ·": 2222,
      "ÑıÑĤÑĮÑģÑı": 2223,
      "ĠÑģÑİÐ´Ð°": 2224,
      "ĠÐ²Ð»Ð°": 2225,
      "ĠÐ±ÐµÑģÑģ": 2226,
      "ĠÑħÐ¾ÑĤÐµÐ»Ð¾ÑģÑĮ": 2227,
      "ĠÐ¿ÑĢÐµÐ´Ð»Ð¾Ð¶": 2228,
      "ĠÐ½Ð¸Ð·": 2229,
      "ÑĤÑı": 2230,
      "Ð°Ð½Ð¸ÐµÐ¼": 2231,
      "ĠÐ½Ð¸ÐºÐ¾Ð»Ð°Ð¹": 2232,
      "Ð½Ð¸Ñı": 2233,
      "ĠÐ²Ð¿Ð¾Ð»": 2234,
      "ĠÐ½ÐµÑħÐ»ÑİÐ´": 2235,
      "ÐµÐµÑĤ": 2236,
      "ĠÑħÑĥ": 2237,
      "ĠÐ±Ð»ÐµÑģÑĤ": 2238,
      "ĠÐ¾Ð±Ñī": 2239,
      "ĠÐ¾Ð±ÑĭÐºÐ½Ð¾Ð²": 2240,
      "ĠÑģÑĥÑħ": 2241,
      "ĠÐ´ÐµÐ»Ð°": 2242,
      "ÑĩÐ°ÑģÑĤÑĮ": 2243,
      "ÑĨÐ¾Ð²": 2244,
      "Ð¾ÑĩÐºÐ°": 2245,
      "ÑĢÐµÐ¼ÐµÐ½Ð½Ð¾": 2246,
      "ĠÑĢÐ°Ð´Ð¾ÑģÑĤ": 2247,
      "ÑĢÐ¾Ðº": 2248,
      "Ð³Ð°ÑĢ": 2249,
      "ĠÐºÐ°Ð»": 2250,
      "ĠÐ¼ÐµÐ´Ð»ÐµÐ½Ð½Ð¾": 2251,
      "ĠÐ¿ÑĢÐµÐ·": 2252,
      "ÐµÑĤÑĭ": 2253,
      "ĠÑĢÐ°Ð·Ð´ÑĢ": 2254,
      "ĠÐ¿Ð°Ð»": 2255,
      "Ð¸Ð´Ð½Ð¾": 2256,
      "ĠÐ¿ÑĢÐµÐ²": 2257,
      "ĠÐ½ÐµÑģÐ¼Ð¾ÑĤÑĢÑı": 2258,
      "ÐµÐ´Ð¸Ð½": 2259,
      "ĠÐ¿ÐµÑĢÐµÐ¼": 2260,
      "Ð¸ÑĨÑĥ": 2261,
      "ĠÐ²Ð¾Ð¾Ð±ÑīÐµ": 2262,
      "Ð°Ð½Ð¸Ð¸": 2263,
      "ĠÐ¿Ð¾ÑĨ": 2264,
      "Ð»ÑıÐ´ÑĭÐ²": 2265,
      "Ð°Ð½Ð½ÑĭÐµ": 2266,
      "ĠÐ¿Ð¾Ð·Ð´": 2267,
      "Ð¸ÑĤÐµÑģÑĮ": 2268,
      "Ð²Ð¸Ð¶": 2269,
      "ĠÑģÐµÑĢÑĮÐµÐ·": 2270,
      "ĠÐ²ÑĩÐµÑĢÐ°": 2271,
      "ĠÐ²Ð¾ÑģÐºÐ»Ð¸Ðº": 2272,
      "ĠÐ¿ÑĮÑı": 2273,
      "ĠÐ±Ð¾Ðº": 2274,
      "ĠÑĪÐº": 2275,
      "ĠÐ½Ð°Ð²ÐµÑĢ": 2276,
      "ĠÐ¿Ð¾ÑıÐ²": 2277,
      "ĠÑģÐ¿Ð°Ñģ": 2278,
      "ĠÑģÐ¾ÑĤ": 2279,
      "ĠÐ¿Ð¾Ð´Ð¾ÑĪÐµÐ»": 2280,
      "ĠÐºÑĥÑĤ": 2281,
      "ĠÑĪÐ¸ÑĢÐ¾Ðº": 2282,
      "ĠÐ´Ð¼": 2283,
      "ÑĨÐ°Ð¼Ð¸": 2284,
      "ÐµÑĢÐ¿": 2285,
      "ÑĩÐ¸Ð²Ð¾": 2286,
      "Ð½ÑĥÐ»Ð¸": 2287,
      "ĠÑĢÐ°Ð·ÑĢ": 2288,
      "ĠÐ±Ð»Ð°Ð³Ð¾Ð´Ð°ÑĢ": 2289,
      "ĠÑĪÐ»Ñı": 2290,
      "ĠÑģÐ»ÑĥÑĩÐ°": 2291,
      "ĠÐ½Ð°Ð¿Ð¸Ñģ": 2292,
      "Ð»Ð°Ð³": 2293,
      "ÑģÐºÐ¾Ðµ": 2294,
      "ĠÐ¿ÐµÑĤÑĢÐ¾Ð²Ð¸Ñĩ": 2295,
      "ĠÑģÑĢÐ°Ð·Ñĥ": 2296,
      "ĠÐºÐ¾ÑĤÐ¾ÑĢÑĭÐ¼": 2297,
      "ĠÐ¼ÐµÐ»ÑĮ": 2298,
      "ĠÑģÐ°Ð¼Ð³": 2299,
      "ĠÐ»ÑİÐ±Ð¾Ð¿ÑĭÑĤ": 2300,
      "ĠÐºÑĢÐµÑģ": 2301,
      "ĠÐ¼Ð¾Ñİ": 2302,
      "Ð»ÑİÐ±": 2303,
      "ĠÑĢÐµÐ±ÐµÐ½": 2304,
      "ĠÑģÑĢÐµÐ´Ð¸": 2305,
      "ĠÐ¿ÑĢÐ¾Ð½": 2306,
      "ĠÑģÐ¾Ð¾Ð±Ñī": 2307,
      "ĠÐ¿Ð¾Ð¼Ð½": 2308,
      "ĠÐ¼Ð¸ÑħÐ°Ð¹": 2309,
      "ĠÐ´ÑĢÑĥÐ³Ð¸Ñħ": 2310,
      "ĠÐ´ÑĥÐ¼Ð°Ñİ": 2311,
      "ĠÐ¾Ð³ÑĢÐ¾Ð¼": 2312,
      "ĠÐ¿Ð½": 2313,
      "ĠÐ·Ð¾Ð»Ð¾ÑĤ": 2314,
      "ĠÐ²Ð¾Ð²ÑģÐµ": 2315,
      "ĠÑģÐ²ÐµÑĢ": 2316,
      "ĠÑģÑĤÐµÐº": 2317,
      "ĠÐ¿ÐµÑĤÑĢÐ¾Ð²": 2318,
      "ĠÑĦÐ¸Ð³": 2319,
      "ĠÐ³Ð»Ð°Ð·Ð°Ñħ": 2320,
      "ĠÐ´Ð¾Ð¼Ðµ": 2321,
      "Ð¼ÐµÑĢ": 2322,
      ",-": 2323,
      "ĠÐ³Ð¾ÑĢÐ´": 2324,
      "Ð»ÐµÐ¹": 2325,
      "ĠÑĥÑħÐ¾Ð´": 2326,
      "ĠÑģÑĤÐµÐ¿Ð°Ð½": 2327,
      "ĠÐ¿ÐµÑģ": 2328,
      "ĠÐ²ÑģÑĤÐ°Ð»": 2329,
      "ĠÑģÐ°Ð¼Ð¾Ðµ": 2330,
      "ĠÑģÐ»ÑĥÑĩÐ°Ð¹": 2331,
      "ĠÐºÑĢÐ¸ÐºÐ½ÑĥÐ»": 2332,
      "ĠÑĢÐ°Ð·Ð´ÑĢÐ°Ð¶": 2333,
      "ĠÐ¿Ð°Ð¼": 2334,
      "ÑĢÐ°Ð¼": 2335,
      "ĠÑĢÐ¾ÑģÑģ": 2336,
      "ĠÐ·Ð°ÑģÑĤ": 2337,
      "ĠÐ¶Ð°ÑĢ": 2338,
      "ĠÐ²Ð¾ÑĪÐµÐ»": 2339,
      "ĠÐ¿Ð¾ÑģÑĤÐ°Ð²": 2340,
      "Ð½ÑİÑİ": 2341,
      "ĠÐ¸ÑģÑĩ": 2342,
      "ĠÐ¿Ð¾ÑĢÑıÐ´": 2343,
      "ĠÐ¿Ð¾Ð´Ð½Ð¸Ð¼": 2344,
      "Ð¸Ð±Ð¾": 2345,
      "Ð¸Ð²ÑĪÐ¸Ð¹": 2346,
      "ĠÐ³ÑĥÐ±Ñĭ": 2347,
      "ĠÐ½ÐµÐ¾Ð±ÑħÐ¾Ð´": 2348,
      "ÑĢÐµÑĤ": 2349,
      "Ð°Ð¼Ð¿": 2350,
      "ĠÐ¾ÑģÐº": 2351,
      "ĠÐ»Ð¾Ð¶": 2352,
      "ĠÐ½ÐµÐ¾Ð¶Ð¸Ð´": 2353,
      "ĠÐ±Ð¾Ð³Ð°ÑĤ": 2354,
      "ĠÐ´Ð¾Ð¶Ð´": 2355,
      "ĠÑĩÐ¸ÑģÑĤ": 2356,
      "Ð¸Ð¶Ðµ": 2357,
      "ĠÐ¸Ð²Ð°Ð½Ð¾Ð²Ð½Ð°": 2358,
      "Ð´Ñı": 2359,
      "Ð¾ÑĤÐ°Ð»": 2360,
      "ĠÑĤÐ°ÐºÐ°Ñı": 2361,
      "ĠÐ¿Ð¾ÑģÑĤÑĥÐ¿": 2362,
      "ĠÑģÑħÐ²Ð°ÑĤ": 2363,
      "ĠÐ²Ð¸Ð½Ð¾Ð²": 2364,
      "ĠÐºÐ²Ð°ÑĢÑĤÐ¸ÑĢ": 2365,
      "ĠÑģÐ¼ÐµÑħ": 2366,
      "ĠÑĢÑĥÐºÐ°Ñħ": 2367,
      "ĠÐ³Ð¾ÑģÐ¿Ð¾Ð´Ð¸Ð½": 2368,
      "ĠÐ±ÑĥÐ¼Ð°Ð³": 2369,
      "ÐºÐ°Ðº": 2370,
      "Ð°Ð²Ð°Ð»": 2371,
      "ĠÐ¿Ð¾Ð´Ð¾Ð±": 2372,
      "Ð»ÐµÑĩ": 2373,
      "Ð¾Ð²Ð½Ð°": 2374,
      "ÑĢÑĥ": 2375,
      "Ð»ÐµÐ½Ð°": 2376,
      "ĠÐ»Ð°ÑģÐºÐ¾Ð²": 2377,
      "ĠÑģÑĤÑĢÐ°Ð½Ð½Ð¾": 2378,
      "ÑĭÑģÐ»": 2379,
      "ĠÑĥÐ´Ð¾Ð²Ð¾Ð»ÑĮ": 2380,
      "ĠÑģÐºÑĥÑĩ": 2381,
      "ÐµÑĢÐ²": 2382,
      "ĠÐ»ÐµÑģÑĤ": 2383,
      "ĠÐºÐ°ÐºÑĬ": 2384,
      "ĠÑħÐ»ÐµÐ±": 2385,
      "ĠÐ¾Ð¿ÑĥÑģÑĤ": 2386,
      "ÐºÐ½ÑĥÐ»": 2387,
      "ĠÑĤÐ°ÐºÐ¸Ñħ": 2388,
      "ĠÐ´ÑĢÑĥÐ³Ð°": 2389,
      "ĠÐ»ÑİÐ±Ð²Ð¸": 2390,
      "ĠÑĪÐ°ÑĢ": 2391,
      "Ð½ÑıÑı": 2392,
      "ĠÐ°Ð»ÐµÑĪ": 2393,
      "Ð¸ÑĦ": 2394,
      "ĠÐ½ÐµÐ¿Ð¾Ð´": 2395,
      "ĠÑģÐ°Ð¼Ð¾Ð¹": 2396,
      "Ð¸Ð¾Ð½": 2397,
      "ĠÑĤÐ°Ð¹": 2398,
      "ĠÑģÑĤÑĥÐ¿": 2399,
      "ĠÐ²Ð¾Ð·ÑĮ": 2400,
      "ĠÐ¿Ð¾Ð´ÑĢ": 2401,
      "Ð½Ð°ÐºÐ¾Ð¼": 2402,
      "ĠÑĥÐ³ÑĢ": 2403,
      "ÐµÐ½Ð½ÑĭÐ¼Ð¸": 2404,
      "ĠÐ±Ð¾Ð»ÐµÐ·": 2405,
      "ĠÐ²Ð¾Ð»Ð½": 2406,
      "ĠÐ´Ð¼Ð¸ÑĤÑĢ": 2407,
      "ĠÑĨÐ°ÑĢ": 2408,
      "ĠÐ²ÑĭÑģÐº": 2409,
      "ĠÑĤÑĥÑĢ": 2410,
      "ĠÐ¼Ð°Ð½": 2411,
      "ÐºÐ¾Ð½": 2412,
      "ĠÐ²ÑģÑĤ": 2413,
      "Ð¸ÑĩÐµÑģÐºÐ¸": 2414,
      "Ð»Ð¾Ð²Ð½Ð°": 2415,
      "ĠÐ·ÐµÐ»ÐµÐ½": 2416,
      "ĠÑĥÐ»ÑĭÐ±ÐºÐ¾Ð¹": 2417,
      "ÐµÐ»ÑģÑı": 2418,
      "ĠÐ¾Ð´Ð½Ð¸Ð¼": 2419,
      "ĠÑģÐ²Ð¾Ð¸Ð¼Ð¸": 2420,
      "ĠÐ¾Ð±Ð¾": 2421,
      "ĠÑįÑĤÐ¾Ð¼Ñĥ": 2422,
      "ĠÐ²Ð½Ð¸Ð·": 2423,
      "ĠÐ¼ÐµÑģÑĤÐµ": 2424,
      "ĠÑģÑĭÐ½": 2425,
      "ĠÐ´Ð¾ÑģÐ°Ð´": 2426,
      "ĠÐ¿Ð¾Ñį": 2427,
      "ÑĭÑģÐº": 2428,
      "ĠÐ²ÑħÐ¾Ð´": 2429,
      "Ð²Ð¸Ð³": 2430,
      "ĠÐ²Ð¸Ð½": 2431,
      "ĠÐ¸Ð±": 2432,
      "ĠÐ²ÐµÑģÐµÐ»Ð¾": 2433,
      "ÐºÑĥÑİ": 2434,
      "ĠÐ»Ð¾Ð³": 2435,
      "ĠÑģÐ¾Ð²ÐµÑĤ": 2436,
      "ĠÐ½ÐµÑģÑĩÐ°ÑģÑĤ": 2437,
      "ĠÐ»ÐµÐ³ÐºÐ¾": 2438,
      "ĠÑħÐ»Ð¾Ð¿": 2439,
      "Ð°ÐºÑĤ": 2440,
      "ĠÐ¶Ð¸Ð»": 2441,
      "ĠÐ¾ÑģÑĤÐ°Ð½": 2442,
      "Ð¿Ð¾Ð´": 2443,
      "ĠÐ´Ð²ÐµÑĢ": 2444,
      "ĠÐ¾ÑĤÑĬ": 2445,
      "ĠÑĩÐµÐ»Ð¾Ð²ÐµÑĩ": 2446,
      "ĠÐ´ÑĢÑĥÐ³Ð¸Ðµ": 2447,
      "ĠÐ¸Ð·Ð´": 2448,
      "ĠÑģÑĤÑĢÐ°Ð´": 2449,
      "ĠÐ¾ÑĤÑĩÐ°Ñı": 2450,
      "ĠÑıÑģÐ½Ð¾": 2451,
      "ĠÑĤÐ°ÐºÐ¾Ð³Ð¾": 2452,
      "ĠÐºÑĢÑĭÐ»ÑĮ": 2453,
      "ĠÐ¾ÑģÑĤÐ¾ÑĢÐ¾Ð¶": 2454,
      "ĠÐ²ÐµÑĢÐ¾": 2455,
      "ĠÐºÐ¸ÑĢ": 2456,
      "ÑĢÐµÐ´ÐµÐ»": 2457,
      "ĠÐ¿Ð¾Ð»Ñĥ": 2458,
      "ÑĨÐµÐ½": 2459,
      "ĠÐ¿ÑĢÐ¾ÑħÐ¾Ð´": 2460,
      "ĠÐ²Ð¾ÑģÑĤÐ¾ÑĢ": 2461,
      "ĠÐ¿Ð°Ð´": 2462,
      "ĠÑĤÑĥÐ´Ð°": 2463,
      "ĠÑģÐ»ÑĭÑĪÐ°Ð»": 2464,
      "ĠÐ¿Ð¾ÑģÐ¿ÐµÑĪ": 2465,
      "Ð¾Ð»Ðµ": 2466,
      "ÑĤÐ¾Ðµ": 2467,
      "ĠÐ»Ð¾Ð²": 2468,
      "ĠÐ¾ÑģÑĤÐ°Ð½Ð¾Ð²Ð¸Ð»ÑģÑı": 2469,
      "Ð¸Ð²Ð°Ð»ÑģÑı": 2470,
      "ĠÐ¼Ð°ÑĢÑĮÑı": 2471,
      "ĠÐ¿Ð¾Ð·Ð²Ð¾Ð»": 2472,
      "ĠÐ»Ð¸Ñĩ": 2473,
      "ĠÐ¿Ð¾ÑĤÐµÑĢ": 2474,
      "ĠÐ²Ð¾ÐºÑĢÑĥÐ³": 2475,
      "ĠÐ¸ÑģÑĩÐµÐ·": 2476,
      "ÑģÑĤÐ²Ð¸Ñı": 2477,
      "ĠÐ³Ð¾ÑģÑĥÐ´Ð°ÑĢ": 2478,
      "ĠÑıÐºÐ¾Ð²": 2479,
      "ĠÑĪÐ»ÑıÐ¿": 2480,
      "ĠÐ¿ÑĢÐ°Ð²Ð¾": 2481,
      "ĠÑģÐ¾ÑģÐµÐ´": 2482,
      "ĠÐ¿ÑĢÐ¾Ð¸Ñģ": 2483,
      "ĠÐ±Ð¾Ð»ÑĮÑĪÐ¾Ð¹": 2484,
      "Ð¾Ð²ÑĭÐ¼": 2485,
      "ĠÐ·Ð²Ð¾Ð½": 2486,
      "Ð¾ÑĢÑĤ": 2487,
      "ĠÐ¶ÐµÐ½Ð°": 2488,
      "ĠÐ³ÑĢÑĥÐ´Ð¸": 2489,
      "ĠÑĩÐµÑĤÐ²ÐµÑĢ": 2490,
      "ĠÑĢÐ°Ð²Ð½Ð¾": 2491,
      "Ð½Ð¸ÐºÐ¾Ð¼": 2492,
      "ĠÐ²Ð°ÑĢÐ²Ð°ÑĢÐ°": 2493,
      "ĠÑĤÐ¾Ð¿": 2494,
      "ĠÐ¿ÑĢÐ¾Ñħ": 2495,
      "ĠÐ¿Ð¾ÑģÑĤÐ¾": 2496,
      "ĠÐ¾ÑĤÐ²Ð¾ÑĢ": 2497,
      "ĠÐ´ÑĢÑĥÐ³Ð¾": 2498,
      "ĠÐ»Ð¸Ð´": 2499,
      "ĠÐ¿Ð¾ÑĩÑĤ": 2500,
      "ĠÑĤÐ¸ÑĪ": 2501,
      "ĠÐ¾Ð±Ð°": 2502,
      "ĠÐ³Ð°Ð·": 2503,
      "ÑĮÑĤÐµ": 2504,
      "ĠÑħÐ°ÑĢ": 2505,
      "ĠÐºÐ½ÑıÐ·Ñı": 2506,
      "ĠÐ¿Ð¾Ð½Ð¸Ð¼Ð°Ñİ": 2507,
      "ĠÑĢÐ¾ÑĤ": 2508,
      "ĠÐ»ÑĥÐ¶": 2509,
      "Ð°ÑĢÐ°": 2510,
      "ĠÐºÐ°Ð±Ð¸Ð½": 2511,
      "ĠÐ¿Ð°Ð½": 2512,
      "ĠÐµÐ¶ÐµÐ»Ð¸": 2513,
      "Ð°Ð²ÑĪÐ¸Ðµ": 2514,
      "ĠÐ³ÑĢÑĥÐ±": 2515,
      "ĠÐºÐ¾Ð¼Ð°Ð½Ð´": 2516,
      "ĠÑĤÐµÐ¼Ð½Ð¾": 2517,
      "ĠÐ½ÐµÐ²Ð¾Ð·": 2518,
      "ĠÑģÐ»ÑĥÑĩÐ°Ðµ": 2519,
      "ĠÑĩÐµÑĢÑĤ": 2520,
      "ĠÐ¼ÐµÑģÑĤÐ°": 2521,
      "Ð°Ð²ÑĪÐ¸Ñħ": 2522,
      "ÑĪÐ¸Ð¼": 2523,
      "Ð¾Ð»Ð²": 2524,
      "ÑĢÐ°ÑģÑĤ": 2525,
      "ĠÐ¿ÑĢÐ¸ÑĪÐµÐ»": 2526,
      "ĠÐ²ÑģÐµÐ¹": 2527,
      "ĠÑĤÐ¾Ñĩ": 2528,
      "ĠÐºÐ¾ÑĢÐ¾Ð»": 2529,
      "Ð¾Ð·ÑĢ": 2530,
      "ĠÐ³ÑĢÑıÐ·": 2531,
      "ĠÑģÐ»ÐµÐ·Ñĭ": 2532,
      "ĠÑģÐ¿ÑĢÐ°Ð²": 2533,
      "ĠÐ´ÑĥÐ¼Ð°ÑĤÑĮ": 2534,
      "ĠÐ¾ÑĤÑģ": 2535,
      "ĠÐ¾ÐºÑĢÑĥÐ¶": 2536,
      "ĠÐ·Ð°Ð³Ð¾Ð²Ð¾ÑĢÐ¸Ð»": 2537,
      "ĠÐ²ÐµÑģÑĮÐ¼Ð°": 2538,
      "ÐºÐ¸Ð¼Ð¸": 2539,
      "Ð°Ð¼ÐµÐ½": 2540,
      "ĠÑĥÐ½": 2541,
      "ĠÑģÑĤÐ¾Ð»ÑĮ": 2542,
      "ÑıÑĤÑģÑı": 2543,
      "ĠÐ´Ð¾Ð¿": 2544,
      "Ð²ÐµÐ´": 2545,
      "ĠÐ»ÑİÐ±Ð»Ñİ": 2546,
      "ĠÑģÐ¼ÐµÑĢÑĤÐ¸": 2547,
      "Ð°Ð½Ð½Ð¾Ð¹": 2548,
      "ĠÐ²ÑĭÐ¹": 2549,
      "Ð¾Ð²Ð¾ÑĢÐ¸Ð»Ð°": 2550,
      "ĠÐ¸Ð´ÑĤÐ¸": 2551,
      "ĠÐ¿ÑĢÐ¸Ð¶": 2552,
      "Ð¸ÑĢÐ¾Ð´": 2553,
      "ĠÑģÑĤÑĭÐ´": 2554,
      "ĠÑĥÐ¼ÐµÑĢ": 2555,
      "ÐµÑĢÐ³": 2556,
      "ĠÑģÐ¿Ð¾ÑģÐ¾Ð±": 2557,
      "ĠÐ¼Ð½Ð¾Ñİ": 2558,
      "ÑīÐ¸Ðº": 2559,
      "ĠÐ¸Ð·Ð¼ÐµÐ½": 2560,
      "ĠÐºÐ°Ñĩ": 2561,
      "ĠÑģÐ¾Ð±ÑģÑĤÐ²ÐµÐ½": 2562,
      "ĠÑģÑĤÐ¾Ð¸ÑĤ": 2563,
      "ĠÐºÐ½ÑıÐ¶": 2564,
      "ĠÐ¾Ð±Ðµ": 2565,
      "ĠÐ¾Ð±Ð¸Ð´": 2566,
      "Ð°ÑİÑģÑĮ": 2567,
      "ĠÐ¼ÑĥÐ·": 2568,
      "ĠÐ¼Ð°Ð³": 2569,
      "Ð¾ÑĢÐµ": 2570,
      "ĠÐ³Ð¾Ð²Ð¾ÑĢÑı": 2571,
      "ĠÑĩÐ°ÑģÐ¾Ð²": 2572,
      "ĠÑģÐ´ÐµÐ»Ð°Ð»": 2573,
      "ĠÑħÐ¾ÑĩÐµÑĤ": 2574,
      "ÐµÑģÑĤÐ½Ð¾": 2575,
      "ĠÑģÑĤÐ°ÑĢÑĥÑħ": 2576,
      "ÑĥÐ½Ð´": 2577,
      "ĠÑĥÑģÐ¼ÐµÑħ": 2578,
      "ÑģÐ¸Ð½": 2579,
      "ĠÑģÐ¶": 2580,
      "ĠÐ»Ð¸ÑģÑĤ": 2581,
      "ĠÐ¿Ð¾ÑģÐ¼Ð¾ÑĤÑĢÐµÐ»": 2582,
      "ĠÐ¿ÑĢÐµ": 2583,
      "ĠÐ¾ÑĩÐµÐ²": 2584,
      "ĠÐ¾ÑĪ": 2585,
      "Ð²Ð¾": 2586,
      "ĠÐ¾Ð±ÑĬÑıÐ²": 2587,
      "ĠÐ³Ð¾ÑģÐ¿Ð¾Ð´Ð°": 2588,
      "ĠÐ¼ÑĥÐ¶Ñĩ": 2589,
      "Ð²ÑĭÑĩÐ°Ð¹": 2590,
      "ĠÐ²Ð¸Ð¶Ñĥ": 2591,
      "ĠÑĩÑĢÐµÐ·Ð²ÑĭÑĩÐ°Ð¹": 2592,
      "ĠÐ²ÑģÐ»ÐµÐ´": 2593,
      "ĠÐºÑĢÐ°ÑģÐ¸Ð²": 2594,
      "ÑĢÐ¾": 2595,
      "ÐºÐ¸Ð½": 2596,
      "ĠÐ²Ð¾Ð»Ð¾ÑģÑĭ": 2597,
      "ĠÐ¿Ð¾ÐºÐ»Ð¾Ð½": 2598,
      "ÑĥÐºÐ¸": 2599,
      "ĠÐ¿ÑĥÑģÑĤÑĮ": 2600,
      "ĠÐºÑĬ": 2601,
      "ĠÐ¿Ð¾Ð´Ð±": 2602,
      "ĠÐ½Ð°ÑģÐ»": 2603,
      "ĠÐ¿ÑĢÐ¾ÑĦ": 2604,
      "ÑĭÐ»Ð°": 2605,
      "ÑıÑı": 2606,
      "ĠÑģÐ¾Ð¿": 2607,
      "ÑĨÐ¸Ñı": 2608,
      "ĠÑģÐ¿Ð¾ÐºÐ¾Ð¹Ð½Ð¾": 2609,
      "ĠÑĢÑĥÑĩ": 2610,
      "Ð¸ÑĤÑı": 2611,
      "ĠÐ¾ÑħÐ¾ÑĤ": 2612,
      "ĠÐ¾ÑĤÑĢ": 2613,
      "ĠÐ·ÐµÐ¼Ð»Ñİ": 2614,
      "ÐµÐµÑĤÑģÑı": 2615,
      "ĠÐ¿Ð¾Ð½ÑıÑĤÑĮ": 2616,
      "ĠÑĢÐµÐº": 2617,
      "ĠÐºÐ¾ÑģÑĤ": 2618,
      "ÑĭÑĤÑĮ": 2619,
      "ĠÐ±ÑĥÐ´ÑĥÑĤ": 2620,
      "ĠÐ±ÑĢÐ¾Ð²": 2621,
      "ĠÑģÐ¼ÑĥÑĤ": 2622,
      "ĠÑģÐ»Ð°Ð´": 2623,
      "ĠÐ½Ð°ÑĪÐ¸": 2624,
      "ĠÑĥÐ²Ð¸Ð´ÐµÐ»": 2625,
      "ĠÑģÐ²ÐµÑĤÐµ": 2626,
      "Ð»ÐµÐ½Ð¸ÐµÐ¼": 2627,
      "ĠÐ¼ÐµÑĤ": 2628,
      "ĠÐ¾ÑĢÑĤÑĢ": 2629,
      "ĠÐ¿Ð¾ÐºÐ¾Ð¹": 2630,
      "ĠÑģÐ½ÐµÐ³": 2631,
      "ĠÐ¾Ð±ÑĢÐ°Ð·Ð¾Ð¼": 2632,
      "ĠÐ½Ð°ÑģÑĤÐ¾ÑıÑī": 2633,
      "ĠÐ°ÑĢÐº": 2634,
      "ĠÐ»ÐµÐ²Ð¸Ð½": 2635,
      "ĠÐ³ÑĢÐ¾Ð¼ÐºÐ¾": 2636,
      "ĠÐ´ÐµÐ´": 2637,
      "ĠÐ¶ÐµÐ½ÑīÐ¸Ð½Ñĭ": 2638,
      "ÑģÐºÐ¾Ð¼Ñĥ": 2639,
      "ĠÐºÐ°ÐºÑĥÑİ": 2640,
      "ĠÑģÐ»Ð¾Ð¶": 2641,
      "ĠÑģÐ²Ð¾ÐµÐ¼Ñĥ": 2642,
      "ĠÐ½Ð¸ÐºÐ¾Ð»Ð°": 2643,
      "ĠÐ´Ð°Ð»ÑĮÑĪÐµ": 2644,
      "ĠÐºÐ°ÐºÐ¾Ð³Ð¾": 2645,
      "ÑĥÑİÑĤ": 2646,
      "Ð°Ð¶Ð´Ñĭ": 2647,
      "Ð½Ð¸ÑĨÑĥ": 2648,
      "ĠÐ±Ð¾Ð³Ð°": 2649,
      "ÐµÐ½ÑĮÐµ": 2650,
      "ĠÐ¼Ð¸Ð³": 2651,
      "ĠÐ½Ð°ÑĩÐ¸Ð½": 2652,
      "ÑĩÐ°ÑĤ": 2653,
      "ĠÐ±ÑĭÑģÑĤÑĢ": 2654,
      "ÑĥÐ´ÑĢ": 2655,
      "ĠÐ½Ð°ÑĩÐ°Ð»ÑĮ": 2656,
      "ĠÐ°Ð»ÐµÐºÑģÐµÐ¹": 2657,
      "ĠÐ¸Ð±Ð¾": 2658,
      "ĠÐ¿Ð»Ð°Ðº": 2659,
      "Ð°Ð²ÑĪÐ¸ÑģÑĮ": 2660,
      "ĠÐ¼ÐµÑĢÑĤÐ²": 2661,
      "Ð¾ÑĤÐ¾Ð¼": 2662,
      "ĠÐ¾Ð±ÑıÐ·": 2663,
      "ĠÐ³Ð¾Ð»Ð¾Ð²Ð°": 2664,
      "ĠÑħÐ¾ÑĤÐµÐ»Ð°": 2665,
      "ĠÐ²ÐµÐ»Ð¸Ñĩ": 2666,
      "ĠÑħÑĥÑĤÐ¾ÑĢ": 2667,
      "ĠÐ²Ð¿ÐµÑĩÐ°ÑĤ": 2668,
      "ĠÐ´Ð°Ð»ÐµÐºÐ¾": 2669,
      "Ð¾Ð»ÑĮÑĤÐµ": 2670,
      "ĠÑĥÐ³Ð¾Ð»": 2671,
      "ĠÐºÐ¾Ð·": 2672,
      "ĠÐ¿Ð¾Ð»ÐºÐ¾Ð²": 2673,
      "ĠÑģÐ°Ð¼ÑĭÐ¹": 2674,
      "ĠÑģÑĤÐ¸Ñħ": 2675,
      "ĠÐºÑĥÑĤÑĥÐ·": 2676,
      "Ð°ÑĤÐ°": 2677,
      "ĠÐ²ÐµÑĢÐ¾ÑıÑĤÐ½Ð¾": 2678,
      "ĠÑĩÐµÐ¼Ñĥ": 2679,
      "ĠÐ´Ð¾Ð»Ð³": 2680,
      "ĠÐ´Ð¸Ðº": 2681,
      "ĠÐ¿ÐµÑĢÐµÐ´Ð¾Ð½Ð¾Ð²": 2682,
      "ĠÐ²ÑģÑĤÐ°Ð²": 2683,
      "Ð¼ÐµÑĪ": 2684,
      "ĠÑĢÐ°Ð±Ð¾Ñĩ": 2685,
      "ĠÐ²Ð½ÑĥÑĤÑĢ": 2686,
      "ĠÑĤÐ°ÑĢ": 2687,
      "Ð¾ÑĩÐºÐ¸": 2688,
      "ĠÐ¼Ð¾Ð³Ð»Ð¸": 2689,
      "ĠÐ½ÐµÐ¿ÑĢÐµÐ¼ÐµÐ½Ð½Ð¾": 2690,
      "ĠÐ²Ð°ÑģÐ¸Ð»ÑĮ": 2691,
      "ĠÑģÑĭÐ½Ð°": 2692,
      "ĠÑģÐ¾Ð¼Ð½": 2693,
      "ÐµÐ·Ð°Ð¿": 2694,
      "Ð°Ð»ÑĬ": 2695,
      "Ð°Ð½Ð½Ð¾Ðµ": 2696,
      "ĠÐ½Ð°ÑĩÐ°Ð»Ð°": 2697,
      "ÑĢÑĭÑĤ": 2698,
      "ĠÐ½ÐµÑĩÐµÐ³Ð¾": 2699,
      "ĠÑĩÐ°Ð¹": 2700,
      "ĠÐ²ÐµÑĩÐµÑĢÐ¾Ð¼": 2701,
      "Ð¾Ð·Ð²": 2702,
      "ĠÐ´Ð²Ð°Ð´ÑĨÐ°ÑĤÑĮ": 2703,
      "ĠÐ¿Ð¾Ð½ÑıÐ»": 2704,
      "Ð»ÑıÑı": 2705,
      "ĠÐ´ÑĥÑĪÐµ": 2706,
      "ĠÐ¿ÑĢÐ¾Ð¸Ð·Ð½ÐµÑģ": 2707,
      "ÑĪÐ°": 2708,
      "ĠÐ²ÐµÑĢÐ½Ð¾": 2709,
      "ĠÑĥÐ²Ð°Ð¶": 2710,
      "Ð¾Ð²Ð¸ÑĩÐ°": 2711,
      "ĠÐ²Ð½ÐµÐ·Ð°Ð¿": 2712,
      "ĠÐºÐ¾Ð¿": 2713,
      "ÑİÑĪÐºÐ°": 2714,
      "ĠÐ¿ÑĥÐ³": 2715,
      "ĠÑģÐ¼ÑĥÑī": 2716,
      "ĠÑģÐºÐ°Ð¶Ñĥ": 2717,
      "ĠÐºÑĢÑĥÐ¶": 2718,
      "ĠÐ²Ð»Ð°Ð´": 2719,
      "ĠÑģÐ°Ð¿": 2720,
      "ĠÐ½Ð¾Ð¶": 2721,
      "Ð°Ð²Ð½Ð¾": 2722,
      "ĠÑĤÑıÐ¶ÐµÐ»Ð¾": 2723,
      "ĠÐ´Ð°Ð²ÑĭÐ´Ð¾Ð²": 2724,
      "ĠÐ´ÑĢÑĥÐ³Ð¾Ðµ": 2725,
      "ĠÑģÑĩÐ°ÑģÑĤÑĮ": 2726,
      "ÑıÐ½ÑĥÐ»": 2727,
      "Ð°Ð²ÑĪÐµÐ³Ð¾": 2728,
      "ĠÑĥÐ¿ÑĢ": 2729,
      "ĠÐ²Ð¾Ð·Ð²ÑĢÐ°Ñī": 2730,
      "ĠÐ½ÐµÑĥÐ¶": 2731,
      "ÑİÐ¼": 2732,
      "ÐµÐ¿ÐµÑĤ": 2733,
      "ĠÐ¿Ð¾ÐºÐ°Ð·ÑĭÐ²": 2734,
      "ĠÐ¸Ð¼ÐµÐ»": 2735,
      "ĠÐ½Ð°ÐºÐ»Ð¾Ð½": 2736,
      "ĠÐ·Ð°Ð¶": 2737,
      "ĠÐ³ÑĥÑģ": 2738,
      "ĠÐ³Ð¾Ð»Ð¾Ð²Ñĭ": 2739,
      "ĠÐ±ÐµÐ¶": 2740,
      "ĠÑģÑĤÑĥÐ»": 2741,
      "ĠÐ´ÑıÐ´": 2742,
      "ĠÐ·Ð°ÐºÐ»ÑİÑĩ": 2743,
      "ĠÐ¿ÐµÑĢÐµÐº": 2744,
      "ĠÐ²Ð¾Ð·Ð±": 2745,
      "ĠÐ´Ð¾Ð»Ð¶Ð½Ñĭ": 2746,
      "ĠÑģÐ¸Ð»ÑĮÐ½Ð¾": 2747,
      "ĠÐ¿ÑĢÐµÐ»": 2748,
      "ĠÑĥÑģÐ»ÑĭÑĪ": 2749,
      "ĠÑĢÐ¾ÑģÑĤÐ¾Ð²": 2750,
      "ĠÑĤÐ¾Ð±Ð¾Ð¹": 2751,
      "ÐºÐ°Ð¼": 2752,
      "ĠÐ½Ð°Ñħ": 2753,
      "ĠÐ¾Ð´Ð½Ð¾Ð¼": 2754,
      "ĠÐ½ÐµÐ¾Ð±ÑĭÐºÐ½Ð¾Ð²": 2755,
      "ĠÐ¿Ð¾Ð´ÑĬ": 2756,
      "ĠÐ²Ð¾Ð½": 2757,
      "ÐµÐ½Ð½Ð¾Ð¼": 2758,
      "ĠÑģÑĥÐ´ÑĮ": 2759,
      "ÑĥÐ¼Ñı": 2760,
      "ĠÐ³Ð¾ÑģÑĤÐ¸Ð½": 2761,
      "ĠÐ±Ð°ÑĢÑĭÑĪ": 2762,
      "ÑĥÑĪÐºÑĥ": 2763,
      "ĠÐ³ÑĢÑĥÑģÑĤ": 2764,
      "ĠÐ¿Ð¾Ð¹Ð´": 2765,
      "ĠÐ½ÐµÐ²Ð¾Ð»ÑĮ": 2766,
      "ĠÐ±ÐµÑĢÐµÐ³": 2767,
      "ĠÑģÐ¾Ð»Ð½ÑĨÐµ": 2768,
      "ĠÐ½ÐµÐ²Ð¾Ð·Ð¼Ð¾Ð¶": 2769,
      "ĠÑģÐ»ÐµÐ³": 2770,
      "ĠÐ¿Ð»Ð¾Ñħ": 2771,
      "ĠÐ½Ð°ÑĤÐ°ÑĪÐ°": 2772,
      "Ð¾ÐºÑĢ": 2773,
      "ĠÑĤÑĢÐµÑħ": 2774,
      "ĠÑģÑĤÐ°ÑĢÑĭÐ¹": 2775,
      "ĠÐ¿Ð¾Ð³Ð»ÑıÐ´": 2776,
      "ĠÐ¸Ð´ÐµÑĤ": 2777,
      "ĠÐ¾ÑĤÐºÐ°Ð·": 2778,
      "ĠÐ³ÑĥÐ±ÐµÑĢ": 2779,
      "ĠÐ½Ð°Ð¼ÐµÑĢ": 2780,
      "ĠÐ¿ÑĤ": 2781,
      "ÑģÑıÑĤ": 2782,
      "Ð¾Ð»ÐµÑĤ": 2783,
      "ĠÐ¼Ð¸Ð½ÑĥÑĤÑĭ": 2784,
      "ĠÐ¼ÐµÑĢÐµ": 2785,
      "ĠÐ¿ÑĭÑĤ": 2786,
      "ĠÑģÑĤÐ¾Ð»Ð°": 2787,
      "ĠÑģÑħÐ¾Ð´": 2788,
      "ĠÑħÐ¾ÑĤÐ¸ÑĤÐµ": 2789,
      "Ð»ÑĭÐ¹": 2790,
      "ĠÐ»ÑĮ": 2791,
      "ĠÑģÑĤÐ°Ð²": 2792,
      "ĠÐ¿Ð¾Ð´Ð´": 2793,
      "ĠÑģÑĤÑĢÐµÐ¼": 2794,
      "ĠÐ¿Ð»Ð¾ÑĤ": 2795,
      "Ð»ÐµÐ½Ð½ÑĭÐ¹": 2796,
      "ĠÐ¿Ð¾Ð¿ÑĢ": 2797,
      "Ð½ÐµÑĪ": 2798,
      "ĠÐºÐ¾Ðµ": 2799,
      "ĠÑģÑĤÐ¾ÑıÐ»Ð°": 2800,
      "ĠÐ¿Ð¾ÐºÐ°Ð·Ð°Ð»Ð¾ÑģÑĮ": 2801,
      "ĠÐ½ÐµÐ½Ð°Ð²": 2802,
      "ĠÐ¾Ð¶Ð¸Ð²": 2803,
      "ĠÑģÑĥÑīÐµÑģÑĤÐ²": 2804,
      "ĠÐ¿ÐµÑĢÐµÐ¿": 2805,
      "ĠÐ¿Ð»Ð°ÑĤÑĮÐµ": 2806,
      "ĠÑģÐ¾ÑģÑĤÐ°Ð²": 2807,
      "ĠÐ´ÑĢÑĥÐ³Ð¾Ð³Ð¾": 2808,
      "ĠÑĥÑĤÑĢÐ¾Ð¼": 2809,
      "Ð¾Ð»Ð¾Ñģ": 2810,
      "ĠÑĤÑĢÐµÑĤÑĮ": 2811,
      "ĠÐ·Ð°Ð¿Ð°Ñħ": 2812,
      "ĠÐ¸ÑģÐºÑĢ": 2813,
      "ĠÐ½ÐµÐ±Ð¾Ð»ÑĮ": 2814,
      "ĠÐ±ÐµÑģÐ¿Ð¾ÐºÐ¾Ð¹": 2815,
      "ÑıÐ»Ð¾": 2816,
      "ĠÐ»ÑİÐ±Ð¸ÑĤ": 2817,
      "ĠÐ¼Ð¾Ð¸Ñħ": 2818,
      "ĠÐ¿Ð¾Ð´ÑħÐ¾Ð´": 2819,
      "ĠÑģÑĤÑĢÐ¾Ð³Ð¾": 2820,
      "ĠÐºÐ°": 2821,
      "Ð½Ð¸ÑĨÐµ": 2822,
      "ĠÑĤÑĢÐ°Ð²": 2823,
      "Ð¾Ð´Ð½Ð¾": 2824,
      "ĠÐ±Ð»Ð°Ð³Ð¾ÑĢÐ¾Ð´": 2825,
      "ĠÑĢÐ¾Ð¼Ð°Ð½": 2826,
      "ĠÐ¾ÑĪÐ¸Ð±": 2827,
      "Ð¾Ð»Ð¾Ð¶": 2828,
      "ĠÐ¾ÑĤÑĩÐµÐ³Ð¾": 2829,
      "Ð´Ñĭ": 2830,
      "ĠÑĥÑģÐ¿Ð¾ÐºÐ¾": 2831,
      "ĠÐ¿Ð¾ÑĩÑĥÐ²ÑģÑĤÐ²Ð¾Ð²Ð°Ð»": 2832,
      "Ð¸ÑĢÐ°Ñı": 2833,
      "ÐµÑĢÑĥ": 2834,
      "ĠÑģÑĤÑĢÐ°ÑĪÐ½Ð¾": 2835,
      "Ð¾ÐºÐ°": 2836,
      "ĠÐ¿Ð¾Ð´Ð¾Ð·ÑĢ": 2837,
      "Ð°ÑİÑīÐ¸Ð¹": 2838,
      "Ġ2": 2839,
      "ĠÐ²Ð»": 2840,
      "ĠÐºÑĥÑħ": 2841,
      "ĠÑĤÑĢÑĥÐ±": 2842,
      "ĠÑĤÐ°ÐºÐ¶Ðµ": 2843,
      "ĠÐ»Ð°Ð´Ð¾Ð½": 2844,
      "ĠÐºÑĥÑĩ": 2845,
      "Ð¸Ð»ÑĬ": 2846,
      "Ð¸ÑĨÐµÐ¹": 2847,
      "ĠÑĦÐ¾Ð¼": 2848,
      "ĠÐ½Ð°ÑĪÐµÐ³Ð¾": 2849,
      "Ð¾Ð²Ð°Ð»ÑģÑı": 2850,
      "ÐµÐ´Ñĥ": 2851,
      "Ð¾Ð½Ðµ": 2852,
      "ĠÑĢÐ¾Ð±": 2853,
      "ĠÑģÐ°Ð½": 2854,
      "Ð¼Ð°ÑĢ": 2855,
      "Ð¾ÑĩÐºÑĥ": 2856,
      "Ð²ÐµÑĢÑħ": 2857,
      "ĠÑĤÐ¾ÑĢÐ¶Ðµ": 2858,
      "ĠÐ´ÐµÑģÑıÑĤÑĮ": 2859,
      "Ð¾ÑĢÐ±": 2860,
      "ĠÐ´ÑĥÐ¼Ð°Ð»Ð°": 2861,
      "ĠÑĥÐ¶Ð°ÑģÐ½Ð¾": 2862,
      "ĠÑĢÐ°Ð²Ð½": 2863,
      "ĠÐ½Ð°ÑģÑĤÐ°ÑģÑĮ": 2864,
      "Ð°ÑģÑģ": 2865,
      "Ð¾Ð²Ð°Ð»Ð¾": 2866,
      "ĠÐ°Ð³": 2867,
      "Ð¸Ð½Ð¾": 2868,
      "ĠÐ´ÑĥÑĪÐ¸": 2869,
      "ĠÐ»ÐµÐ½": 2870,
      "ĠÐ¿Ð¾Ð¶Ð°Ð»ÑĥÐ¹ÑģÑĤÐ°": 2871,
      "ÑĥÐ»Ð°": 2872,
      "ÑĪÑĥÑİ": 2873,
      "ĠÐ±Ð°Ð·": 2874,
      "Ð°Ð½Ð¸Ð¹": 2875,
      "ĠÐ¿Ð¾Ð¼Ð¾Ñī": 2876,
      "ĠÑĩÐµÑģÑĤ": 2877,
      "ÑĭÐ²Ð°Ð»Ð°": 2878,
      "ĠÐ·Ð°Ð½ÑıÑĤ": 2879,
      "ĠÐ¾ÑĩÐµÐ²Ð¸Ð´Ð½Ð¾": 2880,
      "Ð»Ð¾ÑģÑĮ": 2881,
      "Ð¾ÑĤÑĥ": 2882,
      "ĠÑģÐ»ÐµÐ³ÐºÐ°": 2883,
      "ĠÑģÐ²ÐµÐ¶": 2884,
      "ĠÑĥÐ´ÐµÑĢÐ¶": 2885,
      "ĠÐ²ÑĭÑĪÐ»Ð°": 2886,
      "ĠÐ³Ð»ÑĥÑħ": 2887,
      "Ð¾ÐºÐ¾ÑĦ": 2888,
      "ĠÐ½ÐµÐ¿Ð¾Ð´Ð²Ð¸Ð¶": 2889,
      "ĠÐ²Ð¾Ð¾Ð±ÑĢÐ°Ð¶": 2890,
      "Ð°Ð²Ð»Ð¸Ð²": 2891,
      "ĠÐ¾ÑīÑĥÑī": 2892,
      "ĠÐ¹": 2893,
      "ĠÐ¾Ð±ÐµÑī": 2894,
      "ĠÐ³ÑĢÐ¾Ð·": 2895,
      "ĠÐ²ÑģÑıÐºÐ¸Ð¹": 2896,
      "ĠÑĤÐµÑĢÐ¿": 2897,
      "ÑĤÐ°Ð»": 2898,
      "ÑİÑģÑĮ": 2899,
      "ĠÐ¿ÑĢÐ¾ÐºÐ¾ÑĦ": 2900,
      "Ð¸ÑĤÐ°Ð½": 2901,
      "ĠÑģÐ¿ÐµÑĪ": 2902,
      "ĠÐ¾ÐºÐ¾Ð½Ñĩ": 2903,
      "ĠÐ·Ð°Ð¿Ð»": 2904,
      "ĠÑģÐ»Ð¾Ð²Ð¾Ð¼": 2905,
      "ĠÑģÐ¾Ð´": 2906,
      "Ð½Ð°ÑĩÐµ": 2907,
      "ÐµÐ½ÑĮÐºÐ¾Ð¹": 2908,
      "ĠÑĥÐºÐ°Ð·": 2909,
      "ĠÐ³Ð¾Ð»Ð¾Ð²Ðµ": 2910,
      "ĠÐ·Ð½Ð°Ð»Ð°": 2911,
      "ĠÑĥÐ¹": 2912,
      "Ð°ÐºÐµ": 2913,
      "ĠÐµÑħÐ°ÑĤÑĮ": 2914,
      "ÑĥÑģÑĮ": 2915,
      "ĠÐ¾Ð±Ð¼Ð°Ð½": 2916,
      "ĠÐ¼Ð°Ñħ": 2917,
      "ĠÐ¿Ð¾Ð´Ð¿": 2918,
      "ĠÐ³ÑĢÐ°Ð½": 2919,
      "ĠÐºÐ°ÑĢÐ¼Ð°Ð½": 2920,
      "ĠÐ¿Ð½Ð¸Ð½": 2921,
      "ĠÐ¿Ð¾Ð¼Ð¾Ð³": 2922,
      "ĠÐ¿Ð°Ð½ÑĤ": 2923,
      "ĠÐ¿Ð¾Ð»ÑĮÐ·": 2924,
      "ĠÑģÐ¿ÑĥÑģÑĤ": 2925,
      "ĠÐ´Ð¶": 2926,
      "ĠÐ¸ÑģÐºÑĥÑģ": 2927,
      "ĠÐ´ÐµÑĤÐµÐ¹": 2928,
      "Ð¾Ð²Ð°ÑĤ": 2929,
      "ĠÐ²ÑĭÐº": 2930,
      "ĠÑĥÐ·Ð½Ð°Ð»": 2931,
      "ĠÐ¿ÑĢÐ¾ÑĦÐµÑģÑģ": 2932,
      "ĠÐ¸Ð»ÑĮ": 2933,
      "ĠÐ¸Ð·ÑĥÐ¼": 2934,
      "ĠÐ½Ð°ÑĤÐ°Ð»ÑĮ": 2935,
      "ĠÐ¶ÐµÐ»ÑĤ": 2936,
      "ÑĤÐ°Ðº": 2937,
      "Ð²Ð°Ð½": 2938,
      "ÑĪÐ¸": 2939,
      "ĠÑĦÐ¸Ð³ÑĥÑĢ": 2940,
      "ĠÐ·Ð°Ñī": 2941,
      "ĠÑĤÑĢÑĥÐ´Ð½Ð¾": 2942,
      "ĠÐ²Ð¾ÑģÐ¿Ð¾Ð¼Ð¸Ð½Ð°": 2943,
      "ĠÐ³Ð¾Ð»Ð¾ÑģÐ°": 2944,
      "ĠÐ¸Ð½Ð°ÑĩÐµ": 2945,
      "ĠÐ¾Ð±Ð¾ÑĢ": 2946,
      "ÐµÐ·Ð´Ð°": 2947,
      "ĠÑĦÑĢ": 2948,
      "ĠÐ¾ÐºÐ½Ð¾": 2949,
      "ĠÐ¿ÑĢÐ¸Ð½ÐµÑģ": 2950,
      "ĠÐ»Ð¾ÑĪÐ°Ð´ÐµÐ¹": 2951,
      "Ð¾Ð¹ÑĤÐ¸": 2952,
      "ĠÑģÑĤÐ¾ÑıÐ»Ð¸": 2953,
      "ĠÐ»Ð°Ð¼Ð¿": 2954,
      "Ð¸ÑĤÐµÐ»ÑĮÐ½ÑĭÐ¹": 2955,
      "ĠÐ¿Ð¾ÐºÐ¾ÑĢ": 2956,
      "ĠÐ½Ð¸ÐºÐ¾Ð³Ð¾": 2957,
      "ĠÐ¿ÑĢÐµÑģÑĤ": 2958,
      "ÑĭÐ²Ð°ÐµÑĤ": 2959,
      "ÑģÑĤÑĢÐµÐ»": 2960,
      "ĠÐ¿ÑĢÐ¸Ð±Ð»": 2961,
      "Ð¸Ð¼ÐµÑĢ": 2962,
      "ĠÐ¿ÑĢÐ¸ÑģÑĥÑĤ": 2963,
      "ÐµÐ¹ÑģÑı": 2964,
      "ĠÐ½Ð°ÑģÐ¼ÐµÑĪ": 2965,
      "ĠÑĥÑģÐ¸Ð»": 2966,
      "ĠÐºÐ¾Ð¼Ñĥ": 2967,
      "ĠÑĥÐ±ÐµÐ¶Ð´": 2968,
      "ĠÐ²Ð¼ÐµÑģÑĤÐ¾": 2969,
      "Ð½Ð°ÑĩÐ°Ð»Ð°": 2970,
      "ĠÐ²Ð·Ð´ÑĢ": 2971,
      "ĠÑħÐ¾ÑĩÐµÑĪÑĮ": 2972,
      "ĠÐ»Ð¾ÑĪÐ°Ð´Ð¸": 2973,
      "Ð½ÐµÐ»": 2974,
      "ĠÑĥÐºÑĢ": 2975,
      "ĠÐ¿Ð¾ÑģÐ»ÑĥÑĪ": 2976,
      "ĠÐ¾ÑĤÐºÑĢÑĭÑĤ": 2977,
      "ĠÐ´Ð¾Ð³Ð°Ð´": 2978,
      "ĠÐ²Ð¸Ð´Ð¸Ð¼Ð¾": 2979,
      "ĠÐ°ÑĢÐ¼": 2980,
      "ĠÑģÑĤÑĥÐ´": 2981,
      "ĠÑĢÐ°Ð·ÑĥÐ¼ÐµÐµÑĤÑģÑı": 2982,
      "ĠÐ»ÑĥÐº": 2983,
      "ĠÑĪÐ²": 2984,
      "Ð¸ÑĤÐ¸": 2985,
      "Ð»Ð°ÑĪ": 2986,
      "ĠÐ»ÑİÐ±Ð¸Ð»": 2987,
      "ĠÐ½Ð°Ð¿ÑĢÐ¾ÑĤÐ¸Ð²": 2988,
      "ĠÐ³ÑĢÑĥÐ´ÑĮ": 2989,
      "ĠÐ¼ÑĥÐ¶Ð°": 2990,
      "Ð¾Ð»Ðº": 2991,
      "Ð½ÑĥÐ»Ð¸ÑģÑĮ": 2992,
      "ĠÐ¿ÑĢÐ¸ÐµÑħÐ°Ð»": 2993,
      "ĠÐ²ÑģÐ¿Ð¾Ð¼Ð½Ð¸Ð»": 2994,
      "ĠÐ»Ð¾ÑĪÐ°Ð´ÑĮ": 2995,
      "ĠÐ³Ð°Ð»": 2996,
      "ĠÐ³ÑĥÑģÑĤ": 2997,
      "Ð¾ÑĢÐ¾Ð¼": 2998,
      "Ð°ÑĤÑĭ": 2999
    },
    "merges": [
      [
        "Ġ",
        "Ð"
      ],
      [
        "Ð",
        "¾"
      ],
      [
        "Ð",
        "°"
      ],
      [
        "Ð",
        "µ"
      ],
      [
        "Ñ",
        "Ĥ"
      ],
      [
        "Ð",
        "¸"
      ],
      [
        "Ñ",
        "ģ"
      ],
      [
        "Ð¾",
        "Ð"
      ],
      [
        "Ð",
        "½"
      ],
      [
        "Ñ",
        "Ģ"
      ],
      [
        "Ð",
        "»"
      ],
      [
        "Ñ",
        "ĥ"
      ],
      [
        "Ð°",
        "Ð"
      ],
      [
        "Ñ",
        "ı"
      ],
      [
        "Ðµ",
        "Ð"
      ],
      [
        "Ñ",
        "Į"
      ],
      [
        "Ñ",
        "ĭ"
      ],
      [
        "Ġ",
        "Ñģ"
      ],
      [
        "ĠÐ",
        "¿"
      ],
      [
        "ĠÐ",
        "½"
      ],
      [
        "ĠÐ",
        "²"
      ],
      [
        "Ð",
        "º"
      ],
      [
        "Ñ",
        "ĩ"
      ],
      [
        "Ð",
        "²"
      ],
      [
        "ĠÐ",
        "¾"
      ],
      [
        "ĠÐ",
        "¸"
      ],
      [
        "Ð",
        "´"
      ],
      [
        "ĠÐ",
        "º"
      ],
      [
        "Ð",
        "¼"
      ],
      [
        "Ð°",
        "Ð»"
      ],
      [
        "ÑĤ",
        "Ð¾"
      ],
      [
        "Ð¾Ð",
        "²"
      ],
      [
        "Ñ",
        "Ī"
      ],
      [
        "Ñ",
        "ħ"
      ],
      [
        "Ñģ",
        "ÑĤ"
      ],
      [
        "ĠÐ",
        "´"
      ],
      [
        "Ðµ",
        "Ð½"
      ],
      [
        "ĠÐ",
        "±"
      ],
      [
        "Ġ",
        "ÑĤ"
      ],
      [
        "ĠÐ",
        "¼"
      ],
      [
        "Ð¾Ð",
        "»"
      ],
      [
        "Ðµ",
        "ÑĢ"
      ],
      [
        "³",
        "Ð¾"
      ],
      [
        "Ðµ",
        "Ð»"
      ],
      [
        "Ñ",
        "İ"
      ],
      [
        "Ð¾Ð",
        "¼"
      ],
      [
        "Ġ",
        "Ñĩ"
      ],
      [
        "Ð½",
        "Ð¾"
      ],
      [
        "ĠÐ¿",
        "ÑĢ"
      ],
      [
        "Ð¸",
        "Ð»"
      ],
      [
        "Ðµ",
        "ÑĤ"
      ],
      [
        "Ñĥ",
        "Ð"
      ],
      [
        "ĠÐ",
        "·"
      ],
      [
        "Ð°Ð",
        "º"
      ],
      [
        "ÑĤ",
        "ÑĮ"
      ],
      [
        "ĠÐ½",
        "Ðµ"
      ],
      [
        "Ġ",
        "ÑĢ"
      ],
      [
        "Ð¾Ð",
        "´"
      ],
      [
        "ĠÐ",
        "µ"
      ],
      [
        "ĠÐ½",
        "Ð°"
      ],
      [
        "Ð¾Ð",
        "¹"
      ],
      [
        "Ð¸",
        "Ð"
      ],
      [
        "Ð°Ð",
        "·"
      ],
      [
        "ĠÐ",
        "³"
      ],
      [
        "Ð½",
        "Ð°"
      ],
      [
        "Ñģ",
        "Ñı"
      ],
      [
        "Ð¾",
        "ÑĢ"
      ],
      [
        "ÐµÐ",
        "¼"
      ],
      [
        "Ð",
        "¿"
      ],
      [
        "Ð°",
        "Ð½"
      ],
      [
        "Ġ",
        "Ñ"
      ],
      [
        "Ð°Ð",
        "¼"
      ],
      [
        "Ð¾",
        "Ñģ"
      ],
      [
        "ĠÐ",
        "»"
      ],
      [
        "Ġ",
        "-"
      ],
      [
        "Ġ",
        "Ñĥ"
      ],
      [
        "Ð½",
        "Ñĭ"
      ],
      [
        "Ð°",
        "Ñģ"
      ],
      [
        "Ð°Ð",
        "²"
      ],
      [
        "Ð",
        "±"
      ],
      [
        "Ñ",
        "Ĩ"
      ],
      [
        "Ð¸",
        "Ð½"
      ],
      [
        "Ð¾",
        "ÑĤ"
      ],
      [
        "Ð",
        "·"
      ],
      [
        "ÐµÐ",
        "´"
      ],
      [
        "ĠÐ±",
        "Ñĭ"
      ],
      [
        "Ð¾Ð",
        "½"
      ],
      [
        "ĠÑĩ",
        "ÑĤÐ¾"
      ],
      [
        "Ñ",
        "ī"
      ],
      [
        "Ð¸",
        "ÑĤ"
      ],
      [
        "Ð°",
        "ÑĢ"
      ],
      [
        "Ð¸",
        "Ð²"
      ],
      [
        "ĠÐ¾",
        "Ð½"
      ],
      [
        "ĠÐ",
        "°"
      ],
      [
        "Ð¸",
        "Ð¼"
      ],
      [
        "Ð¾Ð",
        "³"
      ],
      [
        "Ñģ",
        "Ðº"
      ],
      [
        "Ġ",
        "Ñı"
      ],
      [
        "ĠÑ",
        "į"
      ],
      [
        "ĠÐ¾",
        "ÑĤ"
      ],
      [
        "ĠÐ",
        "¶"
      ],
      [
        "ĠÑģ",
        "ÑĤ"
      ],
      [
        "Ð°Ð",
        "´"
      ],
      [
        "Ð°",
        "ÑĤ"
      ],
      [
        "Ð¾Ð",
        "±"
      ],
      [
        "ÐµÐ",
        "¹"
      ],
      [
        "Ð",
        "¹"
      ],
      [
        "Ð¸",
        "Ðº"
      ],
      [
        "Ð¾Ð",
        "³Ð¾"
      ],
      [
        "Ð°",
        "Ñı"
      ],
      [
        "Ð°",
        "ÑĤÑĮ"
      ],
      [
        "ĠÐº",
        "Ð°Ðº"
      ],
      [
        "ÐµÐ",
        "²"
      ],
      [
        "ĠÐ¿",
        "Ð¾"
      ],
      [
        "Ð¾Ð",
        "º"
      ],
      [
        "ĠÐ²",
        "Ñģ"
      ],
      [
        "Ð¾Ð",
        "¶"
      ],
      [
        "Ñģ",
        "ÑĮ"
      ],
      [
        "ĠÐ²",
        "Ñĭ"
      ],
      [
        "Ð",
        "³"
      ],
      [
        "Ð½",
        "Ñĥ"
      ],
      [
        "Ð»",
        "Ð¸"
      ],
      [
        "Ð¸",
        "Ðµ"
      ],
      [
        "ÑĤÐ¾",
        "ÑĢ"
      ],
      [
        "Ð¾Ð»",
        "ÑĮ"
      ],
      [
        "Ñĥ",
        "Ð´"
      ],
      [
        "ÑģÑĤ",
        "Ð²"
      ],
      [
        "Ð",
        "³Ð¾"
      ],
      [
        "Ġ",
        "Ñħ"
      ],
      [
        "ÑĥÐ",
        "¶"
      ],
      [
        "ĠÑģ",
        "Ðº"
      ],
      [
        "Ġ-",
        "-"
      ],
      [
        "ĠÑģ",
        "Ð²"
      ],
      [
        "ĠÐ¾",
        "Ð±"
      ],
      [
        "Ð¸",
        "Ð´"
      ],
      [
        "Ð¸",
        "Ñħ"
      ],
      [
        "ĠÐ±Ñĭ",
        "Ð»"
      ],
      [
        "Ð¸",
        "Ñĩ"
      ],
      [
        "ÐµÐ",
        "·"
      ],
      [
        "Ð",
        "¶"
      ],
      [
        "Ð¸Ð",
        "¹"
      ],
      [
        "ĠÐµ",
        "Ð³Ð¾"
      ],
      [
        "ÐµÐ",
        "³Ð¾"
      ],
      [
        "Ð»",
        "Ñı"
      ],
      [
        "ÐµÐ",
        "±"
      ],
      [
        "ÐµÐ",
        "º"
      ],
      [
        "Ðº",
        "Ð¾"
      ],
      [
        "ĠÐ¿",
        "Ð¾Ð´"
      ],
      [
        "Ð°Ð»",
        "Ð°"
      ],
      [
        "Ð¸",
        "Ñı"
      ],
      [
        "Ð°Ð",
        "¶"
      ],
      [
        "Ð¸",
        "ÑĤÑĮ"
      ],
      [
        "Ñ",
        "Ĭ"
      ],
      [
        "ĠÑģ",
        "Ð»"
      ],
      [
        "Ð¾Ð",
        "·"
      ],
      [
        "ĠÐ½",
        "Ð¾"
      ],
      [
        "ĠÑĤ",
        "Ð°Ðº"
      ],
      [
        "ÑĥÐ",
        "³"
      ],
      [
        "ĠÐ¸",
        "Ð·"
      ],
      [
        "ÐµÐ»",
        "ÑĮ"
      ],
      [
        "Ð´",
        "Ð°"
      ],
      [
        "ÐµÐ",
        "¿"
      ],
      [
        "ĠÐ·",
        "Ð°"
      ],
      [
        "Ð°Ð»",
        "Ð¸"
      ],
      [
        "Ðµ",
        "Ñģ"
      ],
      [
        "ĠÑį",
        "ÑĤÐ¾"
      ],
      [
        "Ðµ",
        "Ñĩ"
      ],
      [
        "ĠÑĢ",
        "Ð°Ð·"
      ],
      [
        "ĠÐº",
        "ÑĢ"
      ],
      [
        "Ðº",
        "Ð°"
      ],
      [
        "Ðµ",
        "ÑģÑĤ"
      ],
      [
        "Ġ",
        "ÑĪ"
      ],
      [
        "ÑĢ",
        "Ð°"
      ],
      [
        "ĠÐ²Ñģ",
        "Ðµ"
      ],
      [
        "ĠÐ¾",
        "Ð½Ð°"
      ],
      [
        "Ñĥ",
        "ÑĤ"
      ],
      [
        "Ġ",
        "ÑĤÐ¾"
      ],
      [
        "Ð°Ð¼",
        "Ð¸"
      ],
      [
        "Ð½",
        "Ðµ"
      ],
      [
        "ĠÐº",
        "Ð¾"
      ],
      [
        "Ñĥ",
        "Ð¼"
      ],
      [
        "Ð¾Ð²",
        "Ð¾ÑĢ"
      ],
      [
        "Ð¸",
        "ÑĨ"
      ],
      [
        "Ð»",
        "Ð°"
      ],
      [
        "ÐµÐ½",
        "ÑĮ"
      ],
      [
        "Ð¾Ð",
        "¿"
      ],
      [
        "ĠÐ¿",
        "ÐµÑĢ"
      ],
      [
        "ĠÑį",
        "ÑĤ"
      ],
      [
        "Ðµ",
        "ÑĪ"
      ],
      [
        "Ðº",
        "Ð¸"
      ],
      [
        "Ð¾",
        "ÑģÑĤ"
      ],
      [
        "Ñĭ",
        "Ð²"
      ],
      [
        "Ð¸Ð",
        "·"
      ],
      [
        "ÐµÐ",
        "¶"
      ],
      [
        "Ð½Ñĭ",
        "Ð¹"
      ],
      [
        "Ð°Ð",
        "¿"
      ],
      [
        "Ñĭ",
        "Ð¹"
      ],
      [
        "ĠÐ¾",
        "Ð´"
      ],
      [
        "Ð¾",
        "Ñĩ"
      ],
      [
        "Ð½",
        "Ð¾Ð¹"
      ],
      [
        "ĠÑģÐº",
        "Ð°Ð·"
      ],
      [
        "ĠÑģ",
        "Ð¿"
      ],
      [
        "ĠÑģÐ²",
        "Ð¾"
      ],
      [
        "Ñĥ",
        "ÑĪ"
      ],
      [
        "Ñĥ",
        "Ñİ"
      ],
      [
        "ĠÐ",
        "³Ð¾"
      ],
      [
        "Ð°Ñģ",
        "ÑĮ"
      ],
      [
        "Ð½",
        "Ñı"
      ],
      [
        "Ð½Ñĭ",
        "Ð¼"
      ],
      [
        "Ñĥ",
        "Ñĩ"
      ],
      [
        "ÐµÐ½",
        "Ð½Ð¾"
      ],
      [
        "ĠÐ¿",
        "Ð¾Ð»"
      ],
      [
        "Ñī",
        "Ðµ"
      ],
      [
        "Ñ",
        "Ħ"
      ],
      [
        "ÑĥÐ",
        "±"
      ],
      [
        "ĠÐºÐ¾",
        "ÑĤÐ¾ÑĢ"
      ],
      [
        "ĠÑģ",
        "Ð°Ð¼"
      ],
      [
        "Ð¾Ð»ÑĮ",
        "ÐºÐ¾"
      ],
      [
        "Ð°Ð",
        "±"
      ],
      [
        "Ðº",
        "Ñĥ"
      ],
      [
        "ÑĢ",
        "ÑĥÐ³"
      ],
      [
        "ÑĥÐ",
        "¿"
      ],
      [
        "ĠÐ¿",
        "Ð¾Ñģ"
      ],
      [
        "Ð°Ð",
        "¹"
      ],
      [
        "Ð¸",
        "ÑĢ"
      ],
      [
        "Ð¾Ð³",
        "Ð´Ð°"
      ],
      [
        "Ð¸Ð»",
        "Ð°"
      ],
      [
        "Ð¾",
        "ÑĪ"
      ],
      [
        "ĠÐµ",
        "Ðµ"
      ],
      [
        "ÐµÐ",
        "³"
      ],
      [
        "ĠÑ",
        "Ħ"
      ],
      [
        "ĠÐ¶",
        "Ðµ"
      ],
      [
        "ĠÐ»",
        "Ñİ"
      ],
      [
        "ÑģÑĤ",
        "ÑĮ"
      ],
      [
        "Ð¸Ð»",
        "Ð¸"
      ],
      [
        "ĠÐ±ÑĭÐ»",
        "Ð¾"
      ],
      [
        "Ð½",
        "Ð¾Ð³Ð¾"
      ],
      [
        "Ð°Ð",
        "³"
      ],
      [
        "ĠÐ´",
        "Ð²"
      ],
      [
        "Ð¾Ð¼",
        "Ñĥ"
      ],
      [
        "Ð¸",
        "Ñģ"
      ],
      [
        "Ġ",
        "ÑĥÐ¶"
      ],
      [
        "Ñĭ",
        "Ð¼"
      ],
      [
        "ĠÐ³",
        "Ð»"
      ],
      [
        "ĠÑĤ",
        "ÑĢ"
      ],
      [
        "č",
        "Ċ"
      ],
      [
        "ĠÑģ",
        "Ð¼"
      ],
      [
        "Ð¾",
        "Ðµ"
      ],
      [
        "Ð°",
        "Ñİ"
      ],
      [
        "Ð½Ñĥ",
        "Ð»"
      ],
      [
        "Ð½Ñĭ",
        "Ðµ"
      ],
      [
        "ĠÐ³",
        "ÑĢ"
      ],
      [
        "ĠÐ³",
        "Ð¾Ð²Ð¾ÑĢ"
      ],
      [
        "Ð¾Ñģ",
        "ÑĮ"
      ],
      [
        "Ð°Ð»",
        "ÑĮ"
      ],
      [
        "Ñı",
        "ÑĤ"
      ],
      [
        "Ð°",
        "Ñħ"
      ],
      [
        "ĠÑĢ",
        "Ñĥ"
      ],
      [
        "Ñĥ",
        "ÑĢ"
      ],
      [
        "Ð°",
        "ÐµÑĤ"
      ],
      [
        "ĠÑĢ",
        "Ð°Ñģ"
      ],
      [
        "Ñĭ",
        "Ðµ"
      ],
      [
        "ÐµÐ½",
        "Ñı"
      ],
      [
        "ĠÐ³",
        "Ð¾Ð»"
      ],
      [
        "ĠÑĤ",
        "Ñĭ"
      ],
      [
        "ÐµÐ½",
        "Ð¸"
      ],
      [
        "Ð¼",
        "Ñĥ"
      ],
      [
        "ÑģÑĤ",
        "ÑĢ"
      ],
      [
        "Ð¸Ð»",
        "ÑģÑı"
      ],
      [
        "Ñĭ",
        "Ñħ"
      ],
      [
        "Ð¸",
        "ÑĪ"
      ],
      [
        "ĠÐ²",
        "Ð·"
      ],
      [
        "ĠÐ¼",
        "ÐµÐ½Ñı"
      ],
      [
        "ĠÐ±",
        "ÑĥÐ´"
      ],
      [
        "Ð°Ð»",
        "ÑģÑı"
      ],
      [
        "ĠÐ¿",
        "Ð¾ÑĤ"
      ],
      [
        "ĠÐ¼",
        "Ð½Ðµ"
      ],
      [
        "Ð¸ÑĤ",
        "ÐµÐ»ÑĮ"
      ],
      [
        "Ð½Ñĭ",
        "Ñħ"
      ],
      [
        "Ð½",
        "Ð¸Ðº"
      ],
      [
        "ÐµÐ½",
        "Ð¸Ðµ"
      ],
      [
        "ĠÑĤ",
        "Ð¾Ð»ÑĮÐºÐ¾"
      ],
      [
        "Ð¾Ð²",
        "Ð°"
      ],
      [
        "Ñħ",
        "Ð¾Ð´"
      ],
      [
        "Ñģ",
        "Ð¿"
      ],
      [
        "Ð½Ð°",
        "Ñı"
      ],
      [
        "ĠÑģ",
        "ÐµÐ±"
      ],
      [
        "Ð°",
        "ÑĪ"
      ],
      [
        "ÐµÐ½",
        "Ð¸Ñı"
      ],
      [
        "ÑĢ",
        "Ð¾Ñģ"
      ],
      [
        "ĠÐµ",
        "Ð¼Ñĥ"
      ],
      [
        "ĠÐ´",
        "Ð°"
      ],
      [
        "Ð´",
        "Ðµ"
      ],
      [
        "ĠÐ²",
        "Ð¸Ð´"
      ],
      [
        "ĠÐ¿",
        "Ð¾Ðº"
      ],
      [
        "ÐµÑĢ",
        "ÑĮ"
      ],
      [
        "ĠÐ½",
        "Ð°Ð´"
      ],
      [
        "Ð½Ð¾",
        "Ðµ"
      ],
      [
        "Ð¸Ð",
        "±"
      ],
      [
        "Ð¸",
        "Ð½Ð°"
      ],
      [
        "ĠÐ¿",
        "Ð»"
      ],
      [
        "ĠÐµ",
        "ÑīÐµ"
      ],
      [
        "ÐµÐ»",
        "Ð¾Ð²"
      ],
      [
        "ĠÐ¾",
        "Ð¿"
      ],
      [
        "ĠÐ¼",
        "Ñĭ"
      ],
      [
        "ĠÑģÐºÐ°Ð·",
        "Ð°Ð»"
      ],
      [
        "Ð¸Ð",
        "³"
      ],
      [
        "ĠÐ¸",
        "Ð¼"
      ],
      [
        "ĠÐ¿ÑĢ",
        "Ð¾"
      ],
      [
        "ÑĪ",
        "Ðµ"
      ],
      [
        "ĠÐ¿ÑĢ",
        "ÐµÐ´"
      ],
      [
        "ĠÐ´",
        "ÑĢÑĥÐ³"
      ],
      [
        "ĠÐ·",
        "Ð½Ð°"
      ],
      [
        "ĠÐ½",
        "Ð¸Ðº"
      ],
      [
        "ĠÐ³Ð¾",
        "ÑĢ"
      ],
      [
        "Ñı",
        "ÑĤÑĮ"
      ],
      [
        "ÐµÐ¼",
        "Ñĥ"
      ],
      [
        "ÑģÑĤ",
        "Ð°Ð²"
      ],
      [
        "Ñĥ",
        "Ñħ"
      ],
      [
        "ĠÐ¾",
        "Ñĩ"
      ],
      [
        "ÑģÑĤ",
        "Ð¸"
      ],
      [
        "ĠÐº",
        "Ð¾Ð³Ð´Ð°"
      ],
      [
        "ĠÐ´",
        "ÐµÐ»"
      ],
      [
        "ÑĢ",
        "Ð°Ð²"
      ],
      [
        "Ñı",
        "Ð»"
      ],
      [
        "ĠÑģÑĤ",
        "Ð°ÑĢ"
      ],
      [
        "ÐµÐ»",
        "Ð¸"
      ],
      [
        "ĠÐ±",
        "Ð»"
      ],
      [
        "ĠÐ³Ð»",
        "Ð°Ð·"
      ],
      [
        "ĠÐº",
        "Ð¾Ð½"
      ],
      [
        "ĠÑ",
        "Ĩ"
      ],
      [
        "ĠÐ²",
        "Ð¾Ð·"
      ],
      [
        "ĠÑĥÐ¶",
        "Ðµ"
      ],
      [
        "ÑĢ",
        "ÐµÐ¼"
      ],
      [
        "ĠÐ»Ñİ",
        "Ð±"
      ],
      [
        "ÑĤ",
        "Ð¸"
      ],
      [
        "ĠÑĩ",
        "ÐµÑĢ"
      ],
      [
        "ĠÐ¾ÑĤ",
        "Ð²"
      ],
      [
        "ÑĥÐ",
        "·"
      ],
      [
        "Ñĥ",
        "Ð²"
      ],
      [
        "ĠÑģ",
        "Ð¾"
      ],
      [
        "Ð½",
        "Ð¸"
      ],
      [
        "Ð¸ÑĤ",
        "Ðµ"
      ],
      [
        "ĠÐ²",
        "Ð¾ÑĤ"
      ],
      [
        "ÑĤ",
        "Ðµ"
      ],
      [
        "ĠÐ¾",
        "Ñģ"
      ],
      [
        "ĠÐ¼",
        "Ð¾"
      ],
      [
        "Ðµ",
        "ÑĨ"
      ],
      [
        "Ð°Ð½",
        "Ð¾Ð²"
      ],
      [
        "ĠÐ¼",
        "Ð¾Ð»"
      ],
      [
        "Ð¾ÑĤ",
        "ÑĢ"
      ],
      [
        "ĠÐ²",
        "ÐµÑĢ"
      ],
      [
        "ĠÐ¼",
        "Ð¾Ð¶"
      ],
      [
        "ĠÐ±",
        "ÐµÐ·"
      ],
      [
        "ĠÐ¿Ð¾Ñģ",
        "Ð»"
      ],
      [
        "ÑĢ",
        "Ð°Ð½"
      ],
      [
        "Ðº",
        "Ð¾Ð¹"
      ],
      [
        "ĠÑĩ",
        "ÐµÐ»Ð¾Ð²"
      ],
      [
        "ĠÑĩ",
        "ÑĤ"
      ],
      [
        "Ðº",
        "Ðµ"
      ],
      [
        "Ðµ",
        "ÑģÐº"
      ],
      [
        "Ð°Ð»",
        "Ð¾"
      ],
      [
        "ĠÐ¼",
        "Ð¾Ð³"
      ],
      [
        "Ð¸",
        "ÑģÑĤ"
      ],
      [
        "ĠÐ¾",
        "Ðº"
      ],
      [
        "Ðµ",
        "Ñħ"
      ],
      [
        "Ð¸Ð",
        "¶"
      ],
      [
        "Ð»",
        "Ð¸Ð²"
      ],
      [
        "ĠÐ»",
        "Ð¸ÑĨ"
      ],
      [
        "Ñĥ",
        "Ð»"
      ],
      [
        "ĠÑĤ",
        "ÐµÐ¿"
      ],
      [
        "ĠÐ²",
        "Ð¾"
      ],
      [
        "Ñĭ",
        "ÑĪ"
      ],
      [
        "ĠÑĩÑĤ",
        "Ð¾Ð±"
      ],
      [
        "ĠÐ±",
        "Ð¾Ð»ÑĮ"
      ],
      [
        "ÐµÐ»",
        "Ð°"
      ],
      [
        "Ðº",
        "Ð¾Ð²"
      ],
      [
        "Ð¸Ð¼",
        "Ð¸"
      ],
      [
        "Ð¾Ð±",
        "ÑĢ"
      ],
      [
        "ĠÐ´",
        "Ð¾Ð»"
      ],
      [
        "ĠÐ½",
        "Ð¸"
      ],
      [
        "ĠÐ´",
        "Ð¾"
      ],
      [
        "ÑĮ",
        "Ñı"
      ],
      [
        "ĠÐ´",
        "Ð»Ñı"
      ],
      [
        "Ð»",
        "Ñİ"
      ],
      [
        "ĠÐ¾Ð½",
        "Ð¸"
      ],
      [
        "ĠÐ½",
        "ÐµÐ³Ð¾"
      ],
      [
        "ĠÐ¸",
        "Ñħ"
      ],
      [
        "Ñģ",
        "Ð»"
      ],
      [
        "ĠÑģ",
        "Ð¾Ð²"
      ],
      [
        "ĠÐ¿Ð¾",
        "Ñĩ"
      ],
      [
        "ĠÑģ",
        "ÐµÑĢ"
      ],
      [
        "ĠÐ½",
        "Ð°Ð¿"
      ],
      [
        "Ð½Ñĥ",
        "Ñİ"
      ],
      [
        "Ð»Ñı",
        "Ð´"
      ],
      [
        "Ð¸",
        "Ð¸"
      ],
      [
        "ĠÐ±",
        "ÑĢ"
      ],
      [
        "ĠÑĩÐµÐ»Ð¾Ð²",
        "ÐµÐº"
      ],
      [
        "ĠÐ¿",
        "Ð¾ÑĢ"
      ],
      [
        "Ñģ",
        "Ð»Ð¸"
      ],
      [
        "ĠÑĤ",
        "ÐµÐ±"
      ],
      [
        "ĠÐ·",
        "Ð°Ð¼"
      ],
      [
        "Ðµ",
        "Ðµ"
      ],
      [
        "ĠÑħ",
        "Ð¾ÑĤ"
      ],
      [
        "ĠÑĤÐµÐ¿",
        "ÐµÑĢÑĮ"
      ],
      [
        "ĠÑĥ",
        "Ð´"
      ],
      [
        "Ð¸",
        "ÑģÑĮ"
      ],
      [
        "ĠÐ¿",
        "Ð¾Ð²"
      ],
      [
        "Ð½",
        "Ð¾Ð²"
      ],
      [
        "ĠÐ¿",
        "Ð¾Ð½"
      ],
      [
        "ĠÐ²",
        "Ð°Ñģ"
      ],
      [
        "Ð²",
        "ÐµÑĢ"
      ],
      [
        "Ð½",
        "Ð¾Ð¼"
      ],
      [
        "Ð°Ñı",
        "ÑģÑĮ"
      ],
      [
        "ĠÐ¿ÑĢ",
        "Ð¸"
      ],
      [
        "Ð°Ð»",
        "Ð¾ÑģÑĮ"
      ],
      [
        "ÐµÑĪ",
        "ÑĮ"
      ],
      [
        "ĠÐ¿",
        "Ð¾Ð¼"
      ],
      [
        "ĠÐ¶",
        "ÐµÐ½"
      ],
      [
        "ÑĥÐ²",
        "ÑģÑĤÐ²"
      ],
      [
        "ÐµÑĤ",
        "ÑģÑı"
      ],
      [
        "ĠÑģ",
        "Ð¾Ð±"
      ],
      [
        "ĠÐ½",
        "ÐµÑĤ"
      ],
      [
        "ĠÐ²",
        "Ð´"
      ],
      [
        "Ñĥ",
        "ÑģÑĤ"
      ],
      [
        "Ð°Ð²",
        "ÑĪ"
      ],
      [
        "ĠÐ¾Ñĩ",
        "ÐµÐ½ÑĮ"
      ],
      [
        "Ñĩ",
        "Ð°"
      ],
      [
        "ĠÐº",
        "Ð¾Ð¼"
      ],
      [
        "Ð¸Ð",
        "¿"
      ],
      [
        "Ð´",
        "Ñĥ"
      ],
      [
        "ĠÐ¸",
        "Ð»Ð¸"
      ],
      [
        "ĠÐ°",
        "Ð½"
      ],
      [
        "Ð°Ð¶",
        "Ðµ"
      ],
      [
        "ĠÐ»",
        "Ð¸"
      ],
      [
        "ĠÑĤ",
        "ÐµÐ¼"
      ],
      [
        "ĠÐ±Ñĭ",
        "ÑĤÑĮ"
      ],
      [
        "ĠÑģÐµÐ±",
        "Ñı"
      ],
      [
        "Ð»",
        "ÐµÐ½"
      ],
      [
        "Ð»",
        "Ð¾"
      ],
      [
        "ĠÐ½Ð°",
        "Ñģ"
      ],
      [
        "Ñĭ",
        "ÑĤ"
      ],
      [
        "Ð¸Ð»",
        "Ð°ÑģÑĮ"
      ],
      [
        "ĠÐ´",
        "ÑĢ"
      ],
      [
        "ĠÐ±ÑĭÐ»",
        "Ð°"
      ],
      [
        "ĠÐ´",
        "Ð°Ð¶Ðµ"
      ],
      [
        "ĠÐ»Ñİ",
        "Ð´"
      ],
      [
        "Ð°Ð»Ð¸",
        "ÑģÑĮ"
      ],
      [
        "Ð°Ð»",
        "Ð°ÑģÑĮ"
      ],
      [
        "Ġ",
        "("
      ],
      [
        "ÐµÑĤ",
        "Ðµ"
      ],
      [
        "Ð°ÑĤÑĮ",
        "ÑģÑı"
      ],
      [
        "ÐµÑĤ",
        "ÑĮ"
      ],
      [
        "ĠÐ²",
        "Ð¿"
      ],
      [
        "Ðº",
        "Ð¾Ð¼"
      ],
      [
        "ĠÐ²",
        "ÑĢÐµÐ¼"
      ],
      [
        "ĠÑĥ",
        "Ð¼"
      ],
      [
        "Ð´",
        "ÑĢ"
      ],
      [
        "Ġ",
        "."
      ],
      [
        "Ñı",
        "Ð¼"
      ],
      [
        "ĠÐ½Ð°",
        "Ñĩ"
      ],
      [
        "Ð¾",
        "Ñİ"
      ],
      [
        "ĠÐ´",
        "ÑĥÐ¼"
      ],
      [
        "ĠÐ³Ð¾Ð»",
        "Ð¾Ð²"
      ],
      [
        "ÑĮ",
        "Ñİ"
      ],
      [
        "ĠÐ´",
        "Ð¾Ð¼"
      ],
      [
        "ĠÐµ",
        "ÑģÐ»Ð¸"
      ],
      [
        "ĠÐ½",
        "ÐµÐ¿"
      ],
      [
        "Ð¸ÑĤÐµÐ»ÑĮ",
        "Ð½Ð¾"
      ],
      [
        "Ð»",
        "Ñĭ"
      ],
      [
        "Ñ",
        "ĳ"
      ],
      [
        "ĠÐ¾",
        "ÑģÑĤ"
      ],
      [
        "ĠÐµ",
        "Ð¹"
      ],
      [
        "ĠÑĩ",
        "ÐµÐ¼"
      ],
      [
        "ĠÐº",
        "Ð¾ÑĢ"
      ],
      [
        "ĠÐ²",
        "Ð¾Ñģ"
      ],
      [
        "Ġ",
        ","
      ],
      [
        "ĠÐ½Ð°",
        "ÑĪ"
      ],
      [
        "ĠÐº",
        "Ð°Ð·"
      ],
      [
        "ĠÐ¿ÐµÑĢ",
        "ÐµÐ´"
      ],
      [
        "ĠÐº",
        "Ð¾Ð»"
      ],
      [
        "Ð¸Ð²",
        "ÑĪ"
      ],
      [
        "ĠÐ·",
        "Ð°Ð¿"
      ],
      [
        "Ðº",
        "ÑĢ"
      ],
      [
        "ĠÐ½",
        "Ð¸Ñĩ"
      ],
      [
        "ĠÑģ",
        "ÑĤÐ¾"
      ],
      [
        "ĠÐ·",
        "Ð½"
      ],
      [
        "Ñĭ",
        "Ð»"
      ],
      [
        "ĠÑĩÑĤÐ¾Ð±",
        "Ñĭ"
      ],
      [
        "ÑĥÐ´",
        "ÑĮ"
      ],
      [
        "ÑĤ",
        "ÑĢ"
      ],
      [
        "ĠÐ¿ÑĢ",
        "Ð°Ð²"
      ],
      [
        "Ð¸ÑĤÑĮ",
        "ÑģÑı"
      ],
      [
        "ĠÐ±",
        "Ð¾Ð»"
      ],
      [
        "Ð¾",
        "Ñħ"
      ],
      [
        "ĠÐ·",
        "Ð°Ðº"
      ],
      [
        "Ð¸Ð»",
        "ÑĮ"
      ],
      [
        "Ð½",
        "Ð¸Ð¼"
      ],
      [
        "Ð½ÑĭÐ¼",
        "Ð¸"
      ],
      [
        "-",
        "-"
      ],
      [
        "ÑģÑĤÐ²",
        "Ð¾"
      ],
      [
        "ÑĢ",
        "Ð°Ð·"
      ],
      [
        "ĠÐº",
        "Ð»"
      ],
      [
        "ÑĥÐ´",
        "Ð°"
      ],
      [
        "ĠÐ½",
        "ÐµÐ¼"
      ],
      [
        "ĠÑĥ",
        "Ð²"
      ],
      [
        "ĠÐ¼",
        "Ð°ÑĢ"
      ],
      [
        "ĠÐ²Ð´",
        "ÑĢÑĥÐ³"
      ],
      [
        "Ñı",
        "Ð´"
      ],
      [
        "ĠÐ°",
        "Ð»"
      ],
      [
        "Ð¸Ð½",
        "Ñĥ"
      ],
      [
        "ĠÑĩ",
        "ÑĥÐ²ÑģÑĤÐ²"
      ],
      [
        "ĠÑģÐ»",
        "Ð¾Ð²"
      ],
      [
        "ĠÐ²",
        "Ð¾Ð»"
      ],
      [
        "ĠÐ±",
        "ÐµÑģ"
      ],
      [
        "ĠÐºÑĢ",
        "Ð°Ñģ"
      ],
      [
        "ĠÐ¸",
        "Ð²"
      ],
      [
        "Ð´",
        "ÐµÐ»"
      ],
      [
        "Ð¾Ð¶",
        "Ðµ"
      ],
      [
        "Ð°ÑĤ",
        "ÐµÐ»ÑĮ"
      ],
      [
        "ĠÐ¼Ð¾Ð¶",
        "ÐµÑĤ"
      ],
      [
        "ĠÐº",
        "Ð½Ñı"
      ],
      [
        "Ðµ",
        "Ñī"
      ],
      [
        "ĠÐ½",
        "Ñĥ"
      ],
      [
        "ÐµÑĢ",
        "Ð¶"
      ],
      [
        "Ð½",
        "ÐµÐ¹"
      ],
      [
        "ĠÐ¿ÑĢ",
        "Ð¾Ñģ"
      ],
      [
        "ĠÐ±Ñĭ",
        "Ð»Ð¸"
      ],
      [
        "ĠÐ¿",
        "ÐµÑĤ"
      ],
      [
        "ĠÐ¶",
        "Ð¸Ð·"
      ],
      [
        "ÑĨ",
        "Ð°"
      ],
      [
        "ĠÐ²",
        "Ð°Ð¼"
      ],
      [
        "ĠÐº",
        "Ð°ÑĢ"
      ],
      [
        "ĠÐ¿",
        "Ð¾Ð¿"
      ],
      [
        "Ð¸Ð»Ð¸",
        "ÑģÑĮ"
      ],
      [
        "ĠÑĤ",
        "Ð¾Ð³Ð¾"
      ],
      [
        "Ñı",
        "Ð½"
      ],
      [
        "Ð°",
        "Ñĩ"
      ],
      [
        "ÑĢ",
        "ÐµÐ´"
      ],
      [
        "ĠÑģÐµÐ±",
        "Ðµ"
      ],
      [
        "ĠÐ¿",
        "Ð¾Ð·"
      ],
      [
        "Ð°Ð·",
        "ÑĭÐ²"
      ],
      [
        "Ð°Ñİ",
        "ÑĤ"
      ],
      [
        "Ð½Ð¾",
        "ÑģÑĤÑĮ"
      ],
      [
        "ĠÐ½",
        "Ð°Ðº"
      ],
      [
        "ĠÐ²",
        "Ð°ÑĪ"
      ],
      [
        "ĠÐ³Ð¾Ð»",
        "Ð¾Ñģ"
      ],
      [
        "Ð¾ÑĢ",
        "Ð¾ÑĪ"
      ],
      [
        "ĠÑĥ",
        "Ð»Ñĭ"
      ],
      [
        "ĠÑĥÐ»Ñĭ",
        "Ð±"
      ],
      [
        "Ñĥ",
        "Ñģ"
      ],
      [
        "ĠÐ½Ð¸Ñĩ",
        "ÐµÐ³Ð¾"
      ],
      [
        "Ð½Ð¾",
        "ÑģÑĤÐ¸"
      ],
      [
        "ĠÑģÑĤ",
        "Ð¾Ð»"
      ],
      [
        "Ñı",
        "Ð·"
      ],
      [
        "ĠÐ¾",
        "Ð³"
      ],
      [
        "ĠÐ´",
        "Ð°Ð²"
      ],
      [
        "Ð°Ð¶",
        "Ð´"
      ],
      [
        "ĠÑģÐ¿",
        "ÑĢÐ¾Ñģ"
      ],
      [
        "ĠÐ½",
        "ÐµÐ²"
      ],
      [
        "Ð¸ÑĪ",
        "ÑĮ"
      ],
      [
        "Ð½",
        "Ð¸ÑĨ"
      ],
      [
        "ĠÐ½",
        "Ð¸Ð¼"
      ],
      [
        "Ġ",
        "ÑĥÐ³"
      ],
      [
        "ĠÑĤÐ¾",
        "ÑĤ"
      ],
      [
        "Ñĩ",
        "Ð°Ñģ"
      ],
      [
        "ĠÐ²",
        "ÐµÐ´"
      ],
      [
        "ĠÐ³",
        "Ð´Ðµ"
      ],
      [
        "ÑĢÐ°",
        "ÑĪ"
      ],
      [
        "ĠÑģÐºÐ°Ð·",
        "Ð°Ð»Ð°"
      ],
      [
        "ĠÐ°",
        "ÑĢ"
      ],
      [
        "ĠÐ¸",
        "ÑģÐ¿"
      ],
      [
        "ĠÑģÑĤ",
        "ÑĢ"
      ],
      [
        "ĠÐ³Ð»Ð°Ð·",
        "Ð°"
      ],
      [
        "ĠÑĤ",
        "ÑĥÑĤ"
      ],
      [
        "ĠÐ·",
        "Ð°Ð±"
      ],
      [
        "ĠÐ¿ÑĢ",
        "Ð¸Ð½"
      ],
      [
        "ĠÐ½",
        "ÐµÐ´"
      ],
      [
        "ĠÐ¾Ð´",
        "Ð¸Ð½"
      ],
      [
        "ĠÐ·",
        "Ð°Ð²"
      ],
      [
        "ĠÐ¼",
        "Ð¸Ð½"
      ],
      [
        "Ñĥ",
        "Ðº"
      ],
      [
        "Ð¾Ð´",
        "Ð°"
      ],
      [
        "Ð¾Ð²",
        "Ð¸Ñĩ"
      ],
      [
        "ÑĭÐ¼",
        "Ð¸"
      ],
      [
        "ĠÑįÑĤ",
        "Ð¾Ð³Ð¾"
      ],
      [
        "Ð¸Ñĩ",
        "ÐµÑģÐº"
      ],
      [
        "ĠÐ½",
        "ÐµÐ¹"
      ],
      [
        "ĠÐ¸",
        "Ð½"
      ],
      [
        "ÑģÐº",
        "Ð¸Ð¹"
      ],
      [
        "ĠÐ²ÑĢÐµÐ¼",
        "Ñı"
      ],
      [
        "Ð½Ðµ",
        "Ðµ"
      ],
      [
        "ÑĢ",
        "Ð°ÑĤ"
      ],
      [
        "ĠÑĩ",
        "Ð°Ñģ"
      ],
      [
        "Ġ",
        "ÑĥÐ±"
      ],
      [
        "ÑĤ",
        "Ð°"
      ],
      [
        "Ð°Ð½",
        "Ð¸Ñı"
      ],
      [
        "ĠÐ¿ÐµÑĢ",
        "Ð²"
      ],
      [
        "Ðº",
        "Ð¸Ð¹"
      ],
      [
        "Ñĥ",
        "Ñī"
      ],
      [
        "ĠÑħ",
        "Ð¾ÑĢÐ¾ÑĪ"
      ],
      [
        "ĠÐµ",
        "ÑģÑĤÑĮ"
      ],
      [
        "ÑģÑĤÐ²",
        "ÐµÐ½"
      ],
      [
        "Ð½Ñĥ",
        "Ð²"
      ],
      [
        "ĠÑģÐ¼",
        "Ð¾ÑĤÑĢ"
      ],
      [
        "ÑĤ",
        "Ð¾Ð²"
      ],
      [
        "ĠÑģÐµÑĢ",
        "Ð´"
      ],
      [
        "ĠÐ±ÑĥÐ´",
        "ÐµÑĤ"
      ],
      [
        "ĠÑĤ",
        "Ð°Ð¼"
      ],
      [
        "ĠÐ¾Ð¿",
        "ÑıÑĤÑĮ"
      ],
      [
        "ĠÑĤ",
        "Ð¾Ð¼"
      ],
      [
        "ĠÐ¿ÑĢ",
        "Ð¾Ð´"
      ],
      [
        "ĠÑįÑĤÐ¾",
        "ÑĤ"
      ],
      [
        "ĠÐ²",
        "ÑģÑı"
      ],
      [
        "Ð¸Ð±",
        "ÑĥÐ´ÑĮ"
      ],
      [
        "Ð°Ð½",
        "Ð¸Ðµ"
      ],
      [
        "ÑģÑĤÐ²",
        "Ð°"
      ],
      [
        "ÑĨ",
        "Ðµ"
      ],
      [
        "Ðº",
        "Ð°Ð¼Ð¸"
      ],
      [
        "Ð¾Ð²",
        "Ð°Ð»"
      ],
      [
        "ĠÐ¶",
        "ÐµÐ»"
      ],
      [
        "ĠÐ´",
        "ÐµÐ½ÑĮ"
      ],
      [
        "Ġ",
        "ÑĥÐ¿"
      ],
      [
        "Ð¸ÑĤ",
        "ÑģÑı"
      ],
      [
        "ĠÑģ",
        "Ð¸Ð´"
      ],
      [
        "Ñı",
        "Ñī"
      ],
      [
        "Ð»",
        "Ð°Ð´"
      ],
      [
        "Ð¼",
        "Ð¸"
      ],
      [
        "ÐµÑĢ",
        "Ð°"
      ],
      [
        "ĠÐ½",
        "Ð¾Ð³"
      ],
      [
        "ĠÐºÐ¾Ð¼",
        "Ð½Ð°"
      ],
      [
        "ĠÐ¿",
        "Ð¾Ð³"
      ],
      [
        "ÑĪ",
        "ÐµÐ»"
      ],
      [
        "ĠÐ´Ð¾Ð»",
        "Ð¶"
      ],
      [
        "Ð¸Ð»",
        "Ð¾ÑģÑĮ"
      ],
      [
        "Ñı",
        "Ð²"
      ],
      [
        "ÑĢ",
        "Ð¾Ð´"
      ],
      [
        "ĠÑĥ",
        "Ñģ"
      ],
      [
        "ĠÐ½Ð°Ð´",
        "Ð¾"
      ],
      [
        "ĠÐ¼",
        "ÑĥÐ¶"
      ],
      [
        "ÑĤ",
        "Ñĭ"
      ],
      [
        "Ñı",
        "Ð¶"
      ],
      [
        "ĠÐ±",
        "Ð¾Ð³"
      ],
      [
        "ĠÑĤ",
        "Ð¾Ð»"
      ],
      [
        "ĠÐ»Ð¸ÑĨ",
        "Ð¾"
      ],
      [
        "Ð½ÑĥÐ»",
        "ÑģÑı"
      ],
      [
        "ÐµÐ½Ð¸",
        "ÐµÐ¼"
      ],
      [
        "ĠÐ¿Ð¾ÑĤ",
        "Ð¾Ð¼"
      ],
      [
        "Ðµ",
        "Ñİ"
      ],
      [
        "ĠÐ¿ÑĢ",
        "Ð¸Ð²"
      ],
      [
        "ĠÐ³Ð¾Ð²Ð¾ÑĢ",
        "Ð¸Ð»"
      ],
      [
        "ĠÑĢ",
        "Ð°Ð´"
      ],
      [
        "ĠÐºÐ½Ñı",
        "Ð·"
      ],
      [
        "ĠÐ¼Ð¾Ð»",
        "Ð¾Ð´"
      ],
      [
        "Ð¸",
        "Ñİ"
      ],
      [
        "ĠÐ´",
        "ÐµÐ²"
      ],
      [
        "ĠÐ¿Ð¾ÑĤ",
        "Ð¾Ð¼Ñĥ"
      ],
      [
        "ĠÐ¼Ð¸Ð½",
        "ÑĥÑĤ"
      ],
      [
        "ĠÐ²ÐµÐ´",
        "ÑĮ"
      ],
      [
        "Ñĩ",
        "Ð½Ð¾"
      ],
      [
        "ĠÐ¿",
        "Ð°ÑĢ"
      ],
      [
        "ĠÐ¿",
        "Ð¾Ð¶"
      ],
      [
        "ĠÑĤÐµÐ±",
        "Ñı"
      ],
      [
        "ĠÑģ",
        "Ð¾Ð»"
      ],
      [
        "ĠÐ½Ðµ",
        "ÑģÐº"
      ],
      [
        "Ð°Ð",
        "³Ð¾"
      ],
      [
        "Ð¸Ð²",
        "Ð°Ñı"
      ],
      [
        "ÑģÑĤÑĢ",
        "Ð¾"
      ],
      [
        "ĠÐº",
        "ÑĤÐ¾"
      ],
      [
        "ÐµÐ»",
        "Ð¾"
      ],
      [
        "ĠÑ",
        "ī"
      ],
      [
        "ĠÐ·",
        "Ð²"
      ],
      [
        "ĠÐ¿ÑĢ",
        "Ð¾ÑĤ"
      ],
      [
        "ĠÐ±Ð¾Ð»ÑĮ",
        "ÑĪ"
      ],
      [
        "ĠÐ¼",
        "Ð°Ð»"
      ],
      [
        "ĠÑģ",
        "Ð´ÐµÐ»"
      ],
      [
        "ÑģÑĤ",
        "ÑĥÐ¿"
      ],
      [
        "Ð¼",
        "Ð¾ÑĤÑĢ"
      ],
      [
        "Ñĥ",
        "Ð½"
      ],
      [
        "Ð°ÐµÑĤ",
        "ÑģÑı"
      ],
      [
        "ÑĤÐ¾ÑĢ",
        "Ð¾Ð½"
      ],
      [
        "Ð¾ÑģÑĤ",
        "Ð¸"
      ],
      [
        "Ð°Ñİ",
        "Ñī"
      ],
      [
        "ÐµÐ½Ð¸",
        "Ð¸"
      ],
      [
        "ÐµÑĢ",
        "Ð¸"
      ],
      [
        "ĠÐ½Ðµ",
        "Ðµ"
      ],
      [
        "Ð½Ñĥ",
        "Ð»Ð°"
      ],
      [
        "Ð½",
        "Ð¸Ð±ÑĥÐ´ÑĮ"
      ],
      [
        "ĠÐ½",
        "Ð°Ð¼"
      ],
      [
        "Ñı",
        "Ñģ"
      ],
      [
        "ĠÐ²Ð·",
        "Ð³"
      ],
      [
        "ĠÐ·",
        "Ð°Ð´"
      ],
      [
        "ĠÑĢ",
        "ÐµÑĪ"
      ],
      [
        "ÑģÐº",
        "Ð¾Ð¹"
      ],
      [
        "ĠÐ¸Ð·",
        "Ð²"
      ],
      [
        "ĠÑĤÐµÐ±",
        "Ðµ"
      ],
      [
        "ĠÑĤ",
        "Ð¾Ð¶Ðµ"
      ],
      [
        "Ð³",
        "Ð¸Ð½"
      ],
      [
        "Ñı",
        "ÑģÑĮ"
      ],
      [
        "ÐµÑĢ",
        "ÑĪ"
      ],
      [
        "Ñĩ",
        "Ð¸Ðº"
      ],
      [
        "ĠÐ´",
        "ÑĥÑĪ"
      ],
      [
        "ĠÐ½Ðµ",
        "Ñģ"
      ],
      [
        "ĠÐ¿Ð¾ÑģÐ»",
        "Ðµ"
      ],
      [
        "ĠÐ´",
        "Ð¾ÑĢ"
      ],
      [
        "Ð¸Ñı",
        "ÑĤ"
      ],
      [
        "ĠÑģÐ»",
        "ÑĥÑĩ"
      ],
      [
        "ĠÐ±ÑĥÐ´",
        "ÑĤÐ¾"
      ],
      [
        "ĠÑģ",
        "Ð½"
      ],
      [
        "Ñĩ",
        "Ð¸ÑĤ"
      ],
      [
        "ÑģÐº",
        "Ð¾Ð³Ð¾"
      ],
      [
        "ĠÐ¾ÑĤÐ²",
        "ÐµÑĤ"
      ],
      [
        "ÑĢ",
        "Ð°Ñģ"
      ],
      [
        "ĠÐ¶",
        "Ð¸Ð²"
      ],
      [
        "ĠÐ²Ñĭ",
        "Ñģ"
      ],
      [
        "Ñĭ",
        "Ñĩ"
      ],
      [
        "ĠÐ²",
        "ÐµÑģ"
      ],
      [
        "ĠÑĤ",
        "Ð¾Ð³Ð´Ð°"
      ],
      [
        "ĠÐ²ÑģÐµ",
        "Ñħ"
      ],
      [
        "ÐµÐº",
        "Ñģ"
      ],
      [
        "Ð°",
        "ÑģÑĤ"
      ],
      [
        "ÑĥÐ",
        "¹"
      ],
      [
        "ĠÑģ",
        "ÑĤÐ¾ÑĢÐ¾Ð½"
      ],
      [
        "ĠÐºÐ¾ÑĤÐ¾ÑĢ",
        "ÑĭÐ¹"
      ],
      [
        "ÐµÐ³",
        "Ð´Ð°"
      ],
      [
        "ĠÐ½Ð¾",
        "Ñĩ"
      ],
      [
        "Ð¾Ð»",
        "Ð¶"
      ],
      [
        "ĠÑģ",
        "Ð¾Ñģ"
      ],
      [
        "ĠÐ·",
        "Ð°ÑĤ"
      ],
      [
        "Ġ",
        "ÑĥÐ·"
      ],
      [
        "ĠÐ²",
        "ÐµÐ»"
      ],
      [
        "ĠÑģÐ²Ð¾",
        "ÐµÐ¹"
      ],
      [
        "ĠÐ½",
        "Ð¸Ñħ"
      ],
      [
        "Ð¾Ðº",
        "Ð¾"
      ],
      [
        "ÑĢ",
        "Ð¾Ð²"
      ],
      [
        "ĠÑĢÐ°Ð·",
        "Ð³"
      ],
      [
        "Ð¾Ð¼",
        "Ð½"
      ],
      [
        "Ð¾ÑģÑĤ",
        "ÑĮ"
      ],
      [
        "ĠÐ³Ð¾",
        "ÑģÐ¿"
      ],
      [
        "ÐµÐ½",
        "Ð½ÑĭÐ¹"
      ],
      [
        "Ðµ",
        "ÑģÑı"
      ],
      [
        "ĠÐ½",
        "Ð¾Ð²"
      ],
      [
        "ĠÐ½ÐµÑģÐº",
        "Ð¾Ð»ÑĮÐºÐ¾"
      ],
      [
        "Ð¸Ð»",
        "Ð¾"
      ],
      [
        "ĠÑĤ",
        "Ð¸Ñħ"
      ],
      [
        "Ð¾Ð²",
        "Ð¾Ð»ÑĮ"
      ],
      [
        "ĠÐ±",
        "ÐµÐ»"
      ],
      [
        "ĠÐ¿ÑĢ",
        "Ð¾ÑĪ"
      ],
      [
        "ÑĤ",
        "Ñĥ"
      ],
      [
        "ĠÐ·",
        "Ð°Ð³"
      ],
      [
        "ĠÐ¾Ñģ",
        "Ð¾Ð±"
      ],
      [
        "Ð°Ðº",
        "Ð¾Ð¼"
      ],
      [
        "Ð°",
        "Ð½Ð°"
      ],
      [
        "ĠÑĩ",
        "ÐµÐ³Ð¾"
      ],
      [
        "Ð¸Ð",
        "³Ð¾"
      ],
      [
        "ÐºÐ°",
        "Ñħ"
      ],
      [
        "ĠÐ°Ð»",
        "ÐµÐºÑģ"
      ],
      [
        "ĠÐ¼",
        "Ð°ÑĤ"
      ],
      [
        "ĠÐ²Ñģ",
        "Ð¿"
      ],
      [
        "Ð»",
        "Ð¾Ð½"
      ],
      [
        "ĠÐ¿ÑĢÐ¾Ð´",
        "Ð¾Ð»Ð¶"
      ],
      [
        "Ð²",
        "Ð°ÑĢ"
      ],
      [
        "ÑĢ",
        "Ð°Ð¶"
      ],
      [
        "ĠÑįÑĤ",
        "Ð¾Ð¼"
      ],
      [
        "ÑĢÐ°",
        "ÑĦ"
      ],
      [
        "ĠÐ²",
        "ÐµÑĩ"
      ],
      [
        "ĠÑĩÐµÑĢ",
        "ÐµÐ·"
      ],
      [
        "Ð¾Ð²",
        "Ð°ÑĢ"
      ],
      [
        "ĠÑĢÐ°Ð·",
        "Ð²"
      ],
      [
        "ĠÑĢ",
        "Ð¾Ð´"
      ],
      [
        "ĠÑĢÐ°Ñģ",
        "ÑģÐº"
      ],
      [
        "ĠÐ»",
        "ÐµÑĤ"
      ],
      [
        "ĠÑĢÑĥ",
        "ÐºÐ¸"
      ],
      [
        "Ñĭ",
        "ÑĢ"
      ],
      [
        "Ð¿",
        "ÑĢ"
      ],
      [
        "ĠÐ´",
        "ÐµÑĢ"
      ],
      [
        "Ñĭ",
        "Ðº"
      ],
      [
        "ĠÑģÐ²Ð¾",
        "Ñİ"
      ],
      [
        "ĠÐ¾Ð´",
        "Ð½"
      ],
      [
        "ĠÑĢÐ°Ñģ",
        "Ñģ"
      ],
      [
        "ĠÑįÑĤ",
        "Ð¸"
      ],
      [
        "ĠÐ±Ð¾Ð»",
        "ÐµÐµ"
      ],
      [
        "Ð¸",
        "Ð½Ñĭ"
      ],
      [
        "ĠÐ»",
        "ÑĥÑĩ"
      ],
      [
        "ĠÐ³",
        "Ð»ÑıÐ´"
      ],
      [
        ",",
        "--"
      ],
      [
        "ĠÐ²Ñģ",
        "ÐµÐ³Ð´Ð°"
      ],
      [
        "ĠÑħ",
        "Ð¾Ñĩ"
      ],
      [
        "ÑĤ",
        "ÐµÑĢ"
      ],
      [
        "ĠÐ¿Ð¾ÑģÐ»",
        "ÐµÐ´"
      ],
      [
        "Ðµ",
        "ÑģÑĮ"
      ],
      [
        "ĠÐ´ÐµÐ»",
        "Ð¾"
      ],
      [
        "ĠÐ±",
        "Ð°ÑĢ"
      ],
      [
        "Ð¸Ð¼",
        "Ð¾"
      ],
      [
        "ĠÐ¾",
        "ÑģÑĤÐ°Ð²"
      ],
      [
        "Ð²",
        "Ð°ÑĤ"
      ],
      [
        "ĠÑģÐ¾Ð²",
        "ÐµÑĢÑĪ"
      ],
      [
        "ĠÑģÐ»",
        "ÑĭÑĪ"
      ],
      [
        "Ð½",
        "Ñİ"
      ],
      [
        "ĠÐ¼",
        "ÐµÐ¶"
      ],
      [
        "Ð»",
        "Ð¾Ð²"
      ],
      [
        "ĠÐ¸",
        "ÑģÐº"
      ],
      [
        "ĠÐ²",
        "ÑģÑĤÑĢ"
      ],
      [
        "ĠÐ¿ÑĢ",
        "Ð¸Ñģ"
      ],
      [
        "Ð»",
        "Ðµ"
      ],
      [
        "ĠÑģÐ²",
        "ÐµÑĤ"
      ],
      [
        "Ð¾Ðº",
        "Ð¾Ð¹"
      ],
      [
        "ĠÑģÑĤ",
        "ÑĢÐ°Ð½"
      ],
      [
        "ĠÐ½",
        "Ð°Ð²"
      ],
      [
        "ĠÐ¶ÐµÐ½",
        "Ñī"
      ],
      [
        "ĠÐ¸",
        "Ð³"
      ],
      [
        "Ñİ",
        "ÑĤ"
      ],
      [
        "Ð¸Ð²",
        "Ð°Ð»"
      ],
      [
        "ĠÐºÐ°Ðº",
        "Ð¾Ð¹"
      ],
      [
        "ĠÑĢÑĥ",
        "ÐºÑĥ"
      ],
      [
        "ĠÐ¼",
        "Ð¸Ð»"
      ],
      [
        "ÐµÑģÑĤ",
        "Ðµ"
      ],
      [
        "ĠÐ½",
        "Ð°Ð·"
      ],
      [
        "ĠÐ½",
        "ÑĥÐ¶"
      ],
      [
        "ĠÑģÐºÐ°Ð·",
        "Ð°ÑĤÑĮ"
      ],
      [
        "Ð¸Ð½",
        "Ðµ"
      ],
      [
        "ĠÐ·",
        "ÐµÐ¼"
      ],
      [
        "ĠÐ½",
        "ÐµÐ±"
      ],
      [
        "ĠÑĢ",
        "Ð°Ð±"
      ],
      [
        "ĠÐ±",
        "Ð¾ÑĢ"
      ],
      [
        "ĠÑģÐ¿ÑĢÐ¾Ñģ",
        "Ð¸Ð»"
      ],
      [
        "ĠÐ¿",
        "Ð¾Ð±"
      ],
      [
        "Ð¸",
        "Ñī"
      ],
      [
        "ĠÐ¿Ð¾Ð½",
        "Ð¸Ð¼"
      ],
      [
        "ĠÐ¸Ð²",
        "Ð°Ð½Ð¾Ð²"
      ],
      [
        "ĠÑĥÐ²",
        "Ð¸Ð´"
      ],
      [
        "ĠÐ²Ñģ",
        "ÐµÐ¼"
      ],
      [
        "ĠÐºÐ¾ÑĤÐ¾ÑĢ",
        "ÑĭÐµ"
      ],
      [
        "ĠÐ¼",
        "Ð¾Ð¹"
      ],
      [
        "Ñ",
        "į"
      ],
      [
        "ĠÐ¸",
        "Ñģ"
      ],
      [
        "ĠÐ·",
        "Ð°Ñģ"
      ],
      [
        "Ð°Ðº",
        "Ð¸"
      ],
      [
        "ĠÐ²Ñģ",
        "Ñĳ"
      ],
      [
        "ĠÐµ",
        "Ð´"
      ],
      [
        "Ð½",
        "ÑĮ"
      ],
      [
        "ĠÐ¼",
        "Ð½Ð¾Ð³Ð¾"
      ],
      [
        "Ð»Ð¸",
        "ÑģÑĮ"
      ],
      [
        "ÑĩÐ°",
        "ÑģÑĤ"
      ],
      [
        "ĠÐ»",
        "ÐµÐ³"
      ],
      [
        "ĠÐ¸",
        "Ð´"
      ],
      [
        "ĠÐ¼ÐµÐ¶",
        "Ð´Ñĥ"
      ],
      [
        "ĠÑģÐ»",
        "ÐµÐ´"
      ],
      [
        "ĠÐ³",
        "ÑĥÐ±"
      ],
      [
        "Ġ",
        "Ñİ"
      ],
      [
        "Ð°Ð½",
        "ÑĤ"
      ],
      [
        "ĠÐ¾",
        "ÑĢ"
      ],
      [
        "ĠÐ±Ð¾Ð»ÑĮ",
        "ÑĪÐµ"
      ],
      [
        "ÐµÐ½",
        "Ð°"
      ],
      [
        "ĠÐ²",
        "Ð¾Ð¿"
      ],
      [
        "Ð½Ð¾",
        "Ñİ"
      ],
      [
        "ĠÑħÐ¾ÑĤ",
        "ÐµÐ»"
      ],
      [
        "ÐµÐ½ÑĮ",
        "Ðº"
      ],
      [
        "ĠÐ¼",
        "Ð½"
      ],
      [
        "ĠÐ¿ÑĢ",
        "Ð¸Ðº"
      ],
      [
        "ĠÑģ",
        "ÐµÐ¼"
      ],
      [
        "ĠÐ¿Ð¾Ñĩ",
        "ÑĤÐ¸"
      ],
      [
        "ĠÐ²",
        "Ð¼"
      ],
      [
        "ÑĢÐ°",
        "Ñī"
      ],
      [
        "ĠÐ·Ð°Ð¼",
        "ÐµÑĤ"
      ],
      [
        "Ð²",
        "ÐµÑĤ"
      ],
      [
        "ĠÐ¿ÑĢ",
        "Ð¸Ð±"
      ],
      [
        "Ð¾Ð½",
        "ÐµÑĨ"
      ],
      [
        "ĠÐ½",
        "ÐµÐº"
      ],
      [
        "ÐµÑĢ",
        "ÑĤ"
      ],
      [
        "ĠÐ´Ð¾ÑĢ",
        "Ð¾Ð³"
      ],
      [
        "ĠÐ²",
        "Ð¾ÑĢ"
      ],
      [
        "ĠÑģÐ»",
        "Ð¾Ð²Ð°"
      ],
      [
        "ĠÑģ",
        "Ñĭ"
      ],
      [
        "ÑĢ",
        "Ð¾Ð¼"
      ],
      [
        "ĠÑģÐº",
        "Ð¾ÑĢ"
      ],
      [
        "Ð°Ð½",
        "Ð´"
      ],
      [
        "ĠÐ´",
        "Ð¾Ð±ÑĢ"
      ],
      [
        "Ð½Ñĥ",
        "ÑĤÑĮ"
      ],
      [
        "ÑĢ",
        "ÑĭÐ²"
      ],
      [
        "ĠÑĢÐ°Ñģ",
        "Ð¿"
      ],
      [
        "ĠÐ¾ÑĤÐ²",
        "ÐµÑĩ"
      ],
      [
        "Ð°Ð´",
        "ÑĨ"
      ],
      [
        "ĠÐ¾Ð±",
        "ÑĬ"
      ],
      [
        "Ð¸Ð³Ð¾",
        "ÑĢ"
      ],
      [
        "ĠÐ½ÐµÐ¿",
        "ÑĢ"
      ],
      [
        "ĠÐ¿ÑĢ",
        "ÐµÐ¶"
      ],
      [
        "Ġ",
        "ÑĤÐ¾ÑĢ"
      ],
      [
        "Ð»Ð¸Ð²",
        "Ð¾"
      ],
      [
        "ĠÑĤ",
        "Ð²"
      ],
      [
        "Ñĥ",
        "ÑģÐº"
      ],
      [
        "ĠÐ¿ÑĢ",
        "Ð¾ÑģÑĤ"
      ],
      [
        "ĠÐ³Ð¾Ð»Ð¾Ð²",
        "Ñĥ"
      ],
      [
        "ĠÐ²",
        "ÐµÑģÑĮ"
      ],
      [
        "ĠÐ´Ð²",
        "Ð°"
      ],
      [
        "ĠÐº",
        "Ð°Ð¶Ð´"
      ],
      [
        "ÑĪ",
        "Ð¸Ð¹"
      ],
      [
        "ĠÐ¿Ð¾Ð»",
        "Ð¾Ð¶"
      ],
      [
        "ĠÐ½Ð°Ðº",
        "Ð¾Ð½ÐµÑĨ"
      ],
      [
        "ÑģÑĤÐ²",
        "ÐµÐ½Ð½Ð¾"
      ],
      [
        "ĠÐ·Ð½Ð°",
        "Ñİ"
      ],
      [
        "ĠÐ¿Ð¾Ð´",
        "ÑĥÐ¼"
      ],
      [
        "Ñģ",
        "ÐµÐ¼"
      ],
      [
        "ĠÑģÑĤ",
        "Ð°Ð»"
      ],
      [
        "ĠÑģÐº",
        "Ð°Ð¶"
      ],
      [
        "Ð°",
        "ÐµÐ¼"
      ],
      [
        "Ð½",
        "Ð¾Ð¼Ñĥ"
      ],
      [
        "Ð°Ð¹",
        "ÑĤÐµ"
      ],
      [
        "ĠÑģÐ°Ð¼",
        "Ð³Ð¸Ð½"
      ],
      [
        "Ñĩ",
        "Ð¸Ð²"
      ],
      [
        "Ð¸Ð½",
        "Ð¾Ð²"
      ],
      [
        "Ñĭ",
        "Ð´"
      ],
      [
        "Ð¸",
        "ÐµÐ¼"
      ],
      [
        "Ñı",
        "Ð³"
      ],
      [
        "ĠÑģÑĤ",
        "ÐµÐ¿"
      ],
      [
        "ĠÐºÐ½ÑıÐ·",
        "ÑĮ"
      ],
      [
        "ĠÐ±ÑĢ",
        "Ð°ÑĤ"
      ],
      [
        "ĠÑģ",
        "ÐµÐ¹"
      ],
      [
        "ĠÑĥ",
        "ÑģÐ¿"
      ],
      [
        "ĠÐ´",
        "ÐµÑĤ"
      ],
      [
        "ĠÑĤÐ¾",
        "ÑĩÐ½Ð¾"
      ],
      [
        "ĠÐ·",
        "Ð°Ð½"
      ],
      [
        "ĠÐ´",
        "Ð¾Ðº"
      ],
      [
        "Ð¾Ð¶",
        "Ð´"
      ],
      [
        "ĠÐ³ÑĢ",
        "Ð¸Ð³Ð¾ÑĢ"
      ],
      [
        "ĠÐ¶Ð¸Ð·",
        "Ð½Ð¸"
      ],
      [
        "ĠÑģÐ¾Ð²",
        "ÑģÐµÐ¼"
      ],
      [
        "ĠÐ¾",
        "Ð¶"
      ],
      [
        "ĠÐ¼Ð¾Ð¶",
        "Ð½Ð¾"
      ],
      [
        "ĠÐ¾ÑĤ",
        "ÐºÑĢ"
      ],
      [
        "ÐµÐ½",
        "ÑĤ"
      ],
      [
        "ĠÐ²",
        "Ð°ÑĢ"
      ],
      [
        "ĠÐ»ÑİÐ´",
        "ÐµÐ¹"
      ],
      [
        "ĠÐ»ÑİÐ´",
        "Ð¸"
      ],
      [
        "Ñĩ",
        "Ðµ"
      ],
      [
        "ĠÐ¿ÑĢ",
        "Ð¸Ð´"
      ],
      [
        "ĠÐ½Ð¸Ðº",
        "Ð¾Ð»"
      ],
      [
        "ĠÑħ",
        "Ð¾Ð´"
      ],
      [
        "ĠÐ¿ÑĢ",
        "Ð¸ÑĪ"
      ],
      [
        "Ð¾Ð½",
        "Ð°"
      ],
      [
        "ĠÑĥ",
        "ÑĤ"
      ],
      [
        "Ð¾ÑĢ",
        "Ð¾Ð²"
      ],
      [
        "ĠÐ±Ñĭ",
        "Ð²"
      ],
      [
        "ĠÐ´ÑĢÑĥÐ³",
        "Ð¾Ð¹"
      ],
      [
        "ĠÐ±",
        "ÐµÑĢ"
      ],
      [
        "ĠÐ½Ð°",
        "ÑĤ"
      ],
      [
        "ĠÐ¿Ð¾",
        "Ñħ"
      ],
      [
        "ĠÐ²",
        "ÑĬ"
      ],
      [
        "ÐµÐ¹",
        "ÑģÑĤÐ²"
      ],
      [
        "Ð¾Ð²",
        "Ð°ÑĤÑĮ"
      ],
      [
        "ĠÐ³",
        "ÑĢÐ°ÑĦ"
      ],
      [
        "ĠÐ½Ð¸Ðº",
        "Ð¾Ð³Ð´Ð°"
      ],
      [
        "ĠÑħÐ¾ÑĤ",
        "Ñı"
      ],
      [
        "ĠÐ°Ð½",
        "Ð´ÑĢ"
      ],
      [
        "ÐµÑĢ",
        "ÐµÐ´"
      ],
      [
        "Ð½Ñı",
        "Ð»"
      ],
      [
        "Ñĥ",
        "ÑĤÑĮ"
      ],
      [
        "ĠÐ¾ÑĤ",
        "Ðº"
      ],
      [
        "ĠÐ²",
        "Ð¾Ð´"
      ],
      [
        "ĠÑįÑĤ",
        "Ð¾Ð¹"
      ],
      [
        "ĠÑĥ",
        "Ðº"
      ],
      [
        "ĠÐ²Ñģ",
        "ÐµÐ³Ð¾"
      ],
      [
        "ÑĤÐ¾",
        "Ñĩ"
      ],
      [
        "ĠÐ²Ð¾Ð¿",
        "ÑĢÐ¾Ñģ"
      ],
      [
        "Ð»",
        "Ð¸Ð½"
      ],
      [
        "ĠÐ²",
        "ÑģÐº"
      ],
      [
        "ĠÑĥÐ´",
        "Ð¸Ð²"
      ],
      [
        "ĠÐ´ÐµÑĢ",
        "ÐµÐ²"
      ],
      [
        "ĠÐ¿ÑĢÐ¾",
        "Ð¸Ð·"
      ],
      [
        "ĠÑģÐ»",
        "ÑĥÑĪ"
      ],
      [
        "ĠÐ¿Ð¾",
        "ÑģÑĤ"
      ],
      [
        "ÑĥÑĪ",
        "ÐºÐ°"
      ],
      [
        "ĠÑģÐ²Ð¾",
        "ÐµÐ³Ð¾"
      ],
      [
        "ĠÑħ",
        "Ð¾Ð»"
      ],
      [
        "Ñı",
        "Ñħ"
      ],
      [
        "ÑĨ",
        "Ñĭ"
      ],
      [
        "ĠÐ³Ð¾ÑĢ",
        "Ð¾Ð´"
      ],
      [
        "ÑĢ",
        "Ñĭ"
      ],
      [
        "ĠÐ¿ÑĢ",
        "Ð¾Ð²"
      ],
      [
        "ĠÐ¿ÑĢ",
        "Ð¾Ð³"
      ],
      [
        "Ð´Ðµ",
        "ÑģÑĮ"
      ],
      [
        "Ð¾",
        "ÑĤÑĮ"
      ],
      [
        "ĠÐ¶",
        "Ð°Ð»"
      ],
      [
        "ĠÐ´",
        "Ð¾ÑģÑĤ"
      ],
      [
        "ĠÑĥÐ¶",
        "Ð°Ñģ"
      ],
      [
        "Ð¾Ð²",
        "Ð°Ð½"
      ],
      [
        "ĠÐ¾ÑĤ",
        "Ð´"
      ],
      [
        "ĠÐ¿ÑĢÐ¾ÑĤ",
        "Ð¸Ð²"
      ],
      [
        "ĠÑģÐµÐ¹",
        "ÑĩÐ°Ñģ"
      ],
      [
        "ĠÐº",
        "Ð½"
      ],
      [
        "ĠÐ¿",
        "Ð¾Ð¹"
      ],
      [
        "ÑĢ",
        "Ð¾Ñĩ"
      ],
      [
        "Ð¼",
        "Ð°"
      ],
      [
        "ĠÑħ",
        "ÑĢ"
      ],
      [
        "Ñĥ",
        "ÐµÑĤ"
      ],
      [
        "ĠÐ·",
        "Ð´ÐµÑģÑĮ"
      ],
      [
        "Ð¾Ð·",
        "Ñı"
      ],
      [
        "ĠÐ¿ÐµÑĤ",
        "ÑĢ"
      ],
      [
        "Ð²",
        "Ð¾ÑĢ"
      ],
      [
        "Ð¾ÑĪ",
        "ÐµÐ»"
      ],
      [
        "ÑĨ",
        "ÐµÐ²"
      ],
      [
        "ĠÑħÐ¾ÑĢÐ¾ÑĪ",
        "Ð¾"
      ],
      [
        "Ð¾",
        "Ñī"
      ],
      [
        "ĠÐ»",
        "ÐµÐ²"
      ],
      [
        "ĠÑĥ",
        "Ñĩ"
      ],
      [
        "ĠÑĤ",
        "ÑıÐ¶"
      ],
      [
        "ĠÐ³Ð¾ÑģÐ¿",
        "Ð¾Ð´"
      ],
      [
        "ĠÐ¾ÑģÑĤ",
        "Ð°Ð½Ð¾Ð²"
      ],
      [
        "Ðµ",
        "Ñı"
      ],
      [
        "ĠÐ²Ñĭ",
        "Ð¿"
      ],
      [
        "ÐµÐ»",
        "Ñı"
      ],
      [
        "Ð»",
        "Ð°Ñģ"
      ],
      [
        "ĠÐºÑĢ",
        "Ð¸Ðº"
      ],
      [
        "ÐµÐ²",
        "Ð¸Ñĩ"
      ],
      [
        "ĠÐ´Ð²",
        "Ð¾ÑĢ"
      ],
      [
        "ĠÐ¿",
        "Ð°Ð»ÑĮ"
      ],
      [
        "ÐµÑģÑĤ",
        "ÑĮ"
      ],
      [
        "ĠÑĪ",
        "Ð°Ð³"
      ],
      [
        "ÑĢÐ°Ð½",
        "ÑĨ"
      ],
      [
        "Ð¾Ð½",
        "Ð¾Ð²"
      ],
      [
        "ĠÐ»",
        "ÐµÐ¶"
      ],
      [
        "Ð»",
        "ÐµÐ½Ð½Ð¾"
      ],
      [
        "ĠÐ²Ð·",
        "Ð´"
      ],
      [
        "ĠÐ¿Ð¾Ð¶",
        "Ð°Ð»"
      ],
      [
        "Ñħ",
        "Ð²Ð°ÑĤ"
      ],
      [
        "Ð¾ÑĪ",
        "Ð°Ð´"
      ],
      [
        "ĠÑĤÐ°Ðº",
        "Ð¾Ð¹"
      ],
      [
        "ĠÐ¶Ð¸Ð·",
        "Ð½ÑĮ"
      ],
      [
        "ĠÑįÑĤ",
        "Ñĥ"
      ],
      [
        "ĠÐ¿Ð»",
        "ÐµÑĩ"
      ],
      [
        "ÐµÐ½",
        "Ð½ÑĭÐµ"
      ],
      [
        "ĠÐ¿Ð¾Ðº",
        "Ð°Ð·"
      ],
      [
        "ĠÐ¼",
        "ÐµÐ´"
      ],
      [
        "ĠÑģ",
        "Ð°Ð´"
      ],
      [
        "ĠÐ½",
        "ÐµÐ¼Ñĥ"
      ],
      [
        "Ñı",
        "Ð»Ð°"
      ],
      [
        "ĠÐ»",
        "Ð¾ÑĪÐ°Ð´"
      ],
      [
        "ĠÑħ",
        "Ð¾Ð·Ñı"
      ],
      [
        "ÐµÑģÑĤ",
        "Ð¸"
      ],
      [
        "ĠÑĤ",
        "Ð¾Ð½"
      ],
      [
        "ĠÐ¿ÑĢÐµÐ´",
        "ÑģÑĤÐ°Ð²"
      ],
      [
        "ĠÐ²ÐµÑĩ",
        "ÐµÑĢ"
      ],
      [
        "ĠÐºÐ»",
        "Ð¸Ð¼"
      ],
      [
        "ĠÑģ",
        "Ð¸Ð»"
      ],
      [
        "ĠÐ³Ð¾",
        "ÑģÑĤ"
      ],
      [
        "Ð½Ð¸Ðº",
        "Ð°"
      ],
      [
        "ĠÐ¼",
        "Ð°ÑĤÑĮ"
      ],
      [
        "ĠÐ²",
        "Ð¾Ð¹"
      ],
      [
        "ĠÑĩ",
        "ÐµÑĤ"
      ],
      [
        "ĠÑģÐ¾Ð²ÐµÑĢÑĪ",
        "ÐµÐ½Ð½Ð¾"
      ],
      [
        "ÐµÐ½",
        "Ð½Ð¾Ð¹"
      ],
      [
        ")",
        ","
      ],
      [
        "ĠÐ·",
        "Ð´"
      ],
      [
        "ĠÑĢÐ°Ð·Ð³",
        "Ð¾Ð²Ð¾ÑĢ"
      ],
      [
        "ÐµÐ½",
        "Ñĭ"
      ],
      [
        "ĠÐ±",
        "ÑĢÐ¾Ñģ"
      ],
      [
        "ĠÐ½Ðµ",
        "Ð¾Ð±"
      ],
      [
        "ÑĢ",
        "ÑĥÐ¶"
      ],
      [
        "ÐµÑĩ",
        "Ð½Ð¾"
      ],
      [
        "ÑıÐ»",
        "ÑģÑı"
      ],
      [
        "Ð¸Ð½",
        "Ð¾Ð¹"
      ],
      [
        "Ð»",
        "ÑĮ"
      ],
      [
        "ĠÐ³Ð¾Ð²Ð¾ÑĢ",
        "Ð¸ÑĤÑĮ"
      ],
      [
        "ĠÑı",
        "Ð²"
      ],
      [
        "ĠÑĢÑĥ",
        "Ñģ"
      ],
      [
        "Ð¼",
        "Ðµ"
      ],
      [
        "Ð¼",
        "Ð°Ð½"
      ],
      [
        "ĠÑįÑĤ",
        "Ð°"
      ],
      [
        "ÑĥÐ¶",
        "Ð´"
      ],
      [
        "ĠÑģÐ²Ð¾",
        "Ð¸"
      ],
      [
        "ĠÐ¼Ð¸Ð½ÑĥÑĤ",
        "Ñĥ"
      ],
      [
        "Ð½",
        "Ð¸Ð¹"
      ],
      [
        "ÑıÐ¼",
        "Ð¸"
      ],
      [
        "Ð¼",
        "Ð¾Ð¶"
      ],
      [
        "ĠÐ±",
        "ÐµÐ´"
      ],
      [
        "ĠÐ±Ð»",
        "Ð°Ð³"
      ],
      [
        "Ð½",
        "Ð¸Ðµ"
      ],
      [
        "Ð¾Ð²Ð¾ÑĢ",
        "Ð¸Ð»"
      ],
      [
        "ĠÐ¾ÑĤ",
        "Ñĩ"
      ],
      [
        "ĠÐ·",
        "Ð»"
      ],
      [
        "ĠÐºÐ°Ð·",
        "Ð°Ð»Ð¾ÑģÑĮ"
      ],
      [
        "ĠÐ³Ð¾Ð²Ð¾ÑĢ",
        "Ð¸ÑĤ"
      ],
      [
        "ĠÐ¿Ð¾Ð·",
        "Ð²"
      ],
      [
        "ÑģÐº",
        "Ð¸Ñħ"
      ],
      [
        "ĠÐ½Ð¸Ðº",
        "Ð°Ðº"
      ],
      [
        "ĠÐ´Ð²",
        "ÐµÑĢÑĮ"
      ],
      [
        "ĠÑĩÐµÐ»Ð¾Ð²ÐµÐº",
        "Ð°"
      ],
      [
        "ĠÐ³Ð»Ð°Ð·",
        "Ð°Ð¼Ð¸"
      ],
      [
        "ÐµÐ½Ð¸",
        "Ñİ"
      ],
      [
        "ÑĮ",
        "Ðµ"
      ],
      [
        "Ñİ",
        "Ñī"
      ],
      [
        "ĠÐ´",
        "ÐµÐ¹ÑģÑĤÐ²"
      ],
      [
        "ĠÐ¿",
        "Ð¸ÑģÑĮ"
      ],
      [
        "ĠÐ¿ÑĢ",
        "Ð¸Ð·"
      ],
      [
        "ĠÐ¾Ð±",
        "ÑĢÐ°Ð·"
      ],
      [
        "ÑĭÐ²",
        "Ð°Ð»"
      ],
      [
        "ÑĭÐ²",
        "Ð°Ñı"
      ],
      [
        "ĠÑģÐ²Ð¾",
        "Ðµ"
      ],
      [
        "ÐµÑĤ",
        "Ð°"
      ],
      [
        "ĠÐ·",
        "Ð°ÑĢ"
      ],
      [
        "ĠÐºÑĢ",
        "ÑĥÐ³"
      ],
      [
        "ĠÐ¿",
        "Ð°Ð²"
      ],
      [
        "Ð½",
        "Ð¸Ñĩ"
      ],
      [
        "ĠÐ¿ÑĢ",
        "Ð¸Ñħ"
      ],
      [
        "ĠÑģ",
        "Ð¸Ð»ÑĮ"
      ],
      [
        "ĠÐ¾ÑĤ",
        "Ð¿"
      ],
      [
        "ĠÑĤÐ¾ÑĤ",
        "ÑĩÐ°Ñģ"
      ],
      [
        "Ð½Ð¸Ðº",
        "Ð¾Ð²"
      ],
      [
        "Ð²",
        "Ð°"
      ],
      [
        "ĠÐ³",
        "Ð¾Ð´"
      ],
      [
        "ĠÑģÑĤ",
        "ÑĢÐ°"
      ],
      [
        "ÐµÐ²",
        "ÑĪ"
      ],
      [
        "ĠÐº",
        "Ð°Ð¶"
      ],
      [
        "ÑĢ",
        "Ð¾Ð½"
      ],
      [
        "ĠÐ¼",
        "Ð¾ÑĢ"
      ],
      [
        "ĠÑĢÐ°Ð±",
        "Ð¾ÑĤ"
      ],
      [
        "ĠÐ¾ÑģÐ¾Ð±",
        "ÐµÐ½Ð½Ð¾"
      ],
      [
        "Ð»",
        "Ð¸Ðº"
      ],
      [
        "ÐµÑĢ",
        "Ðº"
      ],
      [
        "ĠÐ¿Ð¾",
        "ÑĪ"
      ],
      [
        "ĠÐ¿Ð¾Ñĩ",
        "ÐµÐ¼Ñĥ"
      ],
      [
        "Ñĥ",
        "ÑīÐµ"
      ],
      [
        "ÐµÐ³",
        "Ð¾Ð´"
      ],
      [
        "ĠÐ±ÐµÑģ",
        "Ð¿"
      ],
      [
        "ĠÐ¿Ð¾Ñģ",
        "Ð¼Ð¾ÑĤÑĢ"
      ],
      [
        "ĠÐ´Ð¾Ð»",
        "Ð³Ð¾"
      ],
      [
        "ĠÐ½",
        "ÐµÐ¶"
      ],
      [
        "ĠÐ¾Ð´",
        "Ð½Ð¾"
      ],
      [
        "ĠÑĦ",
        "ÐµÐ´"
      ],
      [
        "ĠÐ¿",
        "ÑĮ"
      ],
      [
        "ĠÑģ",
        "Ð¾Ð³"
      ],
      [
        "ĠÐ¿Ð¾Ð»",
        "ÑĥÑĩ"
      ],
      [
        "ĠÐ»ÑĥÑĩ",
        "ÑĪÐµ"
      ],
      [
        "Ð¶",
        "Ðµ"
      ],
      [
        "ĠÐ´",
        "Ð¾Ñģ"
      ],
      [
        "Ð»Ñı",
        "Ð»"
      ],
      [
        "ĠÐ¿ÑĢ",
        "Ð¾Ñĩ"
      ],
      [
        "ĠÐ¿ÑĢ",
        "ÑıÐ¼"
      ],
      [
        "ĠÐº",
        "ÑĥÐ´Ð°"
      ],
      [
        "ÑĢ",
        "ÐµÐ·"
      ],
      [
        "ĠÐ´",
        "ÐµÑĢÐ¶"
      ],
      [
        "ĠÐ²Ñģ",
        "Ñİ"
      ],
      [
        "ĠÑģÐ»",
        "ÐµÐ·"
      ],
      [
        "ĠÑģÑĤ",
        "ÑĢÐ°ÑĪ"
      ],
      [
        "ĠÑĤ",
        "ÐµÑĢ"
      ],
      [
        "ÐµÐ½",
        "Ð¸Ð¹"
      ],
      [
        "ĠÑĤÑĢ",
        "Ð¸"
      ],
      [
        "ĠÑĩ",
        "Ð¸ÑĤ"
      ],
      [
        "Ð·",
        "Ñı"
      ],
      [
        "ĠÐ²Ð¸Ð´",
        "ÐµÐ»"
      ],
      [
        "ĠÐ»ÑİÐ±",
        "Ð¾Ð²"
      ],
      [
        "ĠÐ¸Ð²",
        "Ð°Ð½"
      ],
      [
        "ĠÐ½",
        "Ð¾Ñģ"
      ],
      [
        "ÐµÐ½",
        "Ð¾"
      ],
      [
        "ÑĦ",
        "Ð¸ÑĨ"
      ],
      [
        "ĠÑħ",
        "Ð»"
      ],
      [
        "ĠÐ´",
        "Ð°Ð»"
      ],
      [
        "Ñı",
        "Ñĩ"
      ],
      [
        "ĠÐº",
        "ÑĥÑĢ"
      ],
      [
        "ĠÑĥ",
        "Ð»Ð¸"
      ],
      [
        "ĠÐ¾ÑĤ",
        "ÐµÑĨ"
      ],
      [
        "ĠÐ¿ÑĢ",
        "Ð¸ÑıÑĤ"
      ],
      [
        "Ð¸Ð²",
        "Ð°ÑĤÑĮ"
      ],
      [
        "ĠÐ²Ð·Ð³",
        "Ð»Ñı"
      ],
      [
        "ĠÑģ",
        "ÑĬ"
      ],
      [
        "ĠÑģ",
        "ÑĢÐµÐ´"
      ],
      [
        "ĠÐ¼Ñĭ",
        "ÑģÐ»"
      ],
      [
        "ĠÑģÑĤÐ°ÑĢ",
        "Ð¸Ðº"
      ],
      [
        "ĠÐ¿ÑĢÐ¾Ñģ",
        "ÑĤÐ¾"
      ],
      [
        "ĠÑĨ",
        "ÐµÐ»"
      ],
      [
        "ĠÐ´Ð¾Ð¼",
        "Ð°"
      ],
      [
        "ĠÐ³Ð»",
        "Ð°Ð²"
      ],
      [
        "ĠÐ¼Ð¾Ð»",
        "Ñĩ"
      ],
      [
        "ĠÑĦ",
        "ÑĢÐ°Ð½ÑĨ"
      ],
      [
        "ĠÐ´ÑĥÐ¼",
        "Ð°Ð»"
      ],
      [
        "ÑĨ",
        "Ñĥ"
      ],
      [
        "ĠÐ¿",
        "ÑıÑĤ"
      ],
      [
        "Ð¾Ð±ÑĢ",
        "Ð°Ð·"
      ],
      [
        "ĠÐ¾Ð±",
        "ÑĢÐ°ÑĤ"
      ],
      [
        "ĠÐ¼Ð¾Ð³",
        "Ñĥ"
      ],
      [
        "ĠÐ½Ð°Ñĩ",
        "Ð°Ð»"
      ],
      [
        "ÐµÐ½",
        "Ð½ÑĭÑħ"
      ],
      [
        "ĠÑģÐ²",
        "Ð¾Ð¹"
      ],
      [
        "ĠÐº",
        "Ð°Ð¼"
      ],
      [
        "ÐµÐ·",
        "Ð´"
      ],
      [
        "Ð°ÑĤ",
        "ÑĢ"
      ],
      [
        "Ð½Ð¾",
        "Ñģ"
      ],
      [
        "ÑģÑĤ",
        "Ð°Ð»"
      ],
      [
        "ĠÐºÐ¾ÑĤÐ¾ÑĢ",
        "Ð¾Ð¹"
      ],
      [
        "Ð»Ñİ",
        "Ñĩ"
      ],
      [
        "Ð»",
        "Ð¾Ð¶"
      ],
      [
        "ĠÐ±",
        "Ð¾"
      ],
      [
        "ĠÑĢ",
        "Ð°Ð²"
      ],
      [
        "ÐµÐ½",
        "Ð½ÑĭÐ¼"
      ],
      [
        "ĠÐ¿ÑĢ",
        "Ð¾Ð±"
      ],
      [
        "ĠÐºÐ¾Ð½",
        "ÐµÑĩÐ½Ð¾"
      ],
      [
        "ÐµÑģ",
        "ÑĤÐ¾"
      ],
      [
        "ĠÑħ",
        "Ð¾ÑĤÑĮ"
      ],
      [
        "ĠÑĤ",
        "Ðµ"
      ],
      [
        "ĠÐ·Ð½",
        "Ð°ÐºÐ¾Ð¼"
      ],
      [
        "ĠÐºÐ°Ð¶",
        "ÐµÑĤÑģÑı"
      ],
      [
        "ĠÑģ",
        "ÑĥÐ´"
      ],
      [
        "ĠÐ·Ð½",
        "Ð°Ð»"
      ],
      [
        "ĠÐ±",
        "Ð°Ð±"
      ],
      [
        "Ð½Ð°",
        "Ñĩ"
      ],
      [
        "ÐµÐ·",
        "Ð¶"
      ],
      [
        "Ð°ÑĤÐµÐ»ÑĮ",
        "Ð½Ð¾"
      ],
      [
        "ÑĢ",
        "Ð¸Ñĩ"
      ],
      [
        "ĠÐ³ÑĢ",
        "Ð¾Ð¼"
      ],
      [
        "ÐµÐ»ÑĮ",
        "Ð·Ñı"
      ],
      [
        "ĠÐ½Ð°Ð¿",
        "ÑĢ"
      ],
      [
        "Ð»",
        "ÐµÐ½Ð¸Ðµ"
      ],
      [
        "ĠÐ±Ñĭ",
        "ÑģÑĤÑĢÐ¾"
      ],
      [
        "ĠÑĤÑĢ",
        "ÑĥÐ´"
      ],
      [
        "Ð°Ðº",
        "Ð¾"
      ],
      [
        "Ð¸",
        "ÑģÐº"
      ],
      [
        "ĠÐ¼Ð¾",
        "Ñı"
      ],
      [
        "ÑĥÑİ",
        "Ñī"
      ],
      [
        "ĠÐ²Ð·Ð³",
        "Ð»ÑıÐ´"
      ],
      [
        "ĠÑĤ",
        "Ð°"
      ],
      [
        "ĠÐ¿ÑĢ",
        "Ð¸Ð¿"
      ],
      [
        "ĠÑģÐ²Ð¾",
        "Ð¸Ñħ"
      ],
      [
        "ĠÑģÑĤ",
        "Ð°Ð½"
      ],
      [
        "ĠÐºÑĢ",
        "Ð¾Ð²"
      ],
      [
        "ĠÑģÑĤ",
        "Ð°Ð»Ð¾"
      ],
      [
        "ĠÐ²Ñĭ",
        "ÑĢÐ°Ð¶"
      ],
      [
        "ĠÐº",
        "Ð°ÑĤ"
      ],
      [
        "ÐµÐ½",
        "Ð½Ð¾Ð³Ð¾"
      ],
      [
        "ĠÐ²Ð¼",
        "ÐµÑģÑĤÐµ"
      ],
      [
        "ĠÑĢ",
        "ÑĥÐ±"
      ],
      [
        "ÐµÐ½",
        "ÐµÑĢ"
      ],
      [
        "ĠÐ½",
        "ÐµÐ»ÑĮÐ·Ñı"
      ],
      [
        "ĠÐ¿ÑĢ",
        "ÐµÐº"
      ],
      [
        "ĠÑģÐ»",
        "ÑĥÐ¶"
      ],
      [
        "Ð»",
        "ÐµÑĤ"
      ],
      [
        "Ð½Ñĥ",
        "ÑĤ"
      ],
      [
        "ĠÐ¼",
        "ÐµÑģÑĤ"
      ],
      [
        "Ð°ÐµÑĤ",
        "Ðµ"
      ],
      [
        "ĠÐ½Ðµ",
        "Ñĩ"
      ],
      [
        "Ð½",
        "ÐµÐ¼"
      ],
      [
        "ĠÐ²",
        "Ð½"
      ],
      [
        "ĠÑħÐ¾Ð»",
        "Ð¾Ð´"
      ],
      [
        "Ð»",
        "ÐµÐ½Ð¸Ñı"
      ],
      [
        "ĠÑĥ",
        "ÑģÐ»"
      ],
      [
        "ĠÑĤ",
        "Ð¾Ð¼Ñĥ"
      ],
      [
        "ĠÐ¿Ð¾Ð²",
        "ÐµÑĢ"
      ],
      [
        "Ð½",
        "ÐµÐ²"
      ],
      [
        "ĠÐ¾",
        "ÑĦÐ¸ÑĨ"
      ],
      [
        "ĠÐ½Ð°",
        "ÑģÑĤ"
      ],
      [
        "ĠÑĤÐ¸Ñħ",
        "Ð¾"
      ],
      [
        "Ð¾Ð²",
        "Ð¾Ð¹"
      ],
      [
        "ÑģÐº",
        "Ð¸Ðµ"
      ],
      [
        "ĠÑĢÐ°Ð·",
        "Ð´"
      ],
      [
        "Ð½ÑĥÐ»",
        "Ð°ÑģÑĮ"
      ],
      [
        "ĠÑģÐ½",
        "Ð¾Ð²Ð°"
      ],
      [
        "ĠÐ¸Ð³",
        "ÑĢ"
      ],
      [
        "ĠÐ¼",
        "Ð¸ÑĢ"
      ],
      [
        "Ð¸ÑĨ",
        "Ñĭ"
      ],
      [
        "Ð¼",
        "Ñĭ"
      ],
      [
        "Ð»Ð¸",
        "Ñĩ"
      ],
      [
        "Ð»Ð¸",
        "ÑĪ"
      ],
      [
        "ĠÐ·",
        "Ð°Ð»"
      ],
      [
        "Ð°ÑĢ",
        "Ð¾Ð²"
      ],
      [
        "ĠÐ°",
        "Ðº"
      ],
      [
        "Ð»Ñİ",
        "Ð´"
      ],
      [
        "ÐµÐ²",
        "Ð½Ð°"
      ],
      [
        "ÑģÑĤÐ²",
        "Ð¾Ð¼"
      ],
      [
        "Ðº",
        "Ð¸Ðµ"
      ],
      [
        "ĠÐ¾Ð´",
        "Ð½Ð°"
      ],
      [
        "ĠÑģÐµÑĢÐ´",
        "ÑĨÐµ"
      ],
      [
        "ĠÐ¼",
        "ÐµÑĢ"
      ],
      [
        "ĠÐ¾Ð´Ð½",
        "Ð°ÐºÐ¾"
      ],
      [
        "Ð»",
        "ÐµÐ´"
      ],
      [
        "Ð¸",
        "ÑĢÐ°"
      ],
      [
        "ĠÐ´",
        "Ð°Ð¼"
      ],
      [
        "Ð°",
        "ÐµÑĪÑĮ"
      ],
      [
        "ĠÐºÐ¾ÑĤÐ¾ÑĢ",
        "Ð°Ñı"
      ],
      [
        "ĠÐ¾",
        "Ñħ"
      ],
      [
        "ĠÑĥ",
        "ÑĤÑĢ"
      ],
      [
        "ĠÑģÐ²Ð¾",
        "Ð¸Ð¼"
      ],
      [
        "Ð¼",
        "Ð¾"
      ],
      [
        "ĠÐ²",
        "Ð½Ð¸Ð¼"
      ],
      [
        "ÑĪ",
        "Ð¸ÑģÑĮ"
      ],
      [
        "ĠÑģÐ¼",
        "ÐµÑĢ"
      ],
      [
        "ĠÐ²ÐµÐ»",
        "Ð¸Ðº"
      ],
      [
        "ĠÐ´",
        "Ð¾Ð²Ð¾Ð»ÑĮ"
      ],
      [
        "ĠÐ²Ð¾Ð»",
        "Ð¾Ñģ"
      ],
      [
        "ĠÐ²Ð¾Ð·",
        "Ð²"
      ],
      [
        "ĠÐ¾ÑĤ",
        "ÑĤ"
      ],
      [
        "ĠÐ¿Ð¾Ð²",
        "ÑĤÐ¾ÑĢ"
      ],
      [
        "ÑĭÐº",
        "Ð½Ð¾Ð²"
      ],
      [
        "Ġ",
        "1"
      ],
      [
        "ĠÐ·Ð°",
        "Ñĩ"
      ],
      [
        "ĠÐºÐ¾ÑĤÐ¾ÑĢ",
        "Ð¾Ð³Ð¾"
      ],
      [
        "ĠÐ¿ÑĢ",
        "Ð¸Ð¼"
      ],
      [
        "ĠÑģ",
        "Ð¾Ð·"
      ],
      [
        "ĠÑĪ",
        "Ð¸ÑĢ"
      ],
      [
        "Ð¾Ð±",
        "Ð½Ð¾"
      ],
      [
        "Ð°ÑĪ",
        "Ð°"
      ],
      [
        "ĠÐ¿",
        "ÑĥÑģÑĤ"
      ],
      [
        "ĠÐ±Ð»",
        "Ð°Ð³Ð¾"
      ],
      [
        "ĠÑģÐ¿",
        "Ð¾ÐºÐ¾Ð¹"
      ],
      [
        "Ð¸ÑĤ",
        "ÑĢ"
      ],
      [
        "ĠÐ¿ÑĢÐµÐ¶",
        "Ð´Ðµ"
      ],
      [
        "ĠÐºÐ½",
        "Ð¸Ð³"
      ],
      [
        "ĠÐ¼",
        "Ð°Ð»ÑĮ"
      ],
      [
        "ĠÑĢ",
        "ÑıÐ´"
      ],
      [
        "ĠÑĥ",
        "Ð²ÐµÑĢ"
      ],
      [
        "ĠÐ¿",
        "Ð¸Ñģ"
      ],
      [
        "ĠÐ³ÑĢÐ¸Ð³Ð¾ÑĢ",
        "Ð¸Ð¹"
      ],
      [
        "Ð²",
        "Ð°Ð»"
      ],
      [
        "ÑĥÐ»",
        "ÑĮ"
      ],
      [
        "ĠÐ¸Ð·Ð²",
        "ÐµÑģÑĤ"
      ],
      [
        "ĠÐ½ÑĥÐ¶",
        "Ð½Ð¾"
      ],
      [
        "ĠÐ½",
        "Ð°Ð³"
      ],
      [
        "ĠÐ³",
        "ÐµÐ½ÐµÑĢ"
      ],
      [
        "ÐµÐ½Ð½Ð¾",
        "Ðµ"
      ],
      [
        "ÑĢ",
        "Ð°Ð´"
      ],
      [
        "ĠÑĢ",
        "Ñĭ"
      ],
      [
        "Ðº",
        "Ð°Ñı"
      ],
      [
        "ĠÐ¼",
        "Ð¾Ñģ"
      ],
      [
        "ĠÐ²",
        "ÐµÑĤ"
      ],
      [
        "ĠÐ²Ñĭ",
        "ÑħÐ¾Ð´"
      ],
      [
        "ĠÑĤÐ°Ðº",
        "Ð¾Ðµ"
      ],
      [
        "ĠÑı",
        "Ñģ"
      ],
      [
        "ĠÐ²Ð¿",
        "ÐµÑĢÐµÐ´"
      ],
      [
        "Ñģ",
        "ÑĥÐ´"
      ],
      [
        "ĠÐ³Ð»",
        "ÑĥÐ¿"
      ],
      [
        "ĠÐ½Ð°",
        "ÑħÐ¾Ð´"
      ],
      [
        "Ð°ÑĢ",
        "ÑĮ"
      ],
      [
        "ĠÑģ",
        "Ð±"
      ],
      [
        "ĠÑįÑĤ",
        "Ð¸Ñħ"
      ],
      [
        "Ð¾",
        "ÑĤÐ¾ÑĢ"
      ],
      [
        "ĠÐ°",
        "Ð²"
      ],
      [
        "Ð½Ð¾",
        "ÑĪ"
      ],
      [
        "ĠÐ½",
        "Ð°Ð±"
      ],
      [
        "Ð¾Ð½",
        "ÑĮ"
      ],
      [
        "ĠÑĢÐ°Ð·",
        "Ð±"
      ],
      [
        "ĠÐ¾Ð¶",
        "Ð¸Ð´"
      ],
      [
        "ĠÐ´Ð°Ð²",
        "Ð½Ð¾"
      ],
      [
        "ĠÐ½Ðµ",
        "Ñħ"
      ],
      [
        "Ñģ",
        "Ðµ"
      ],
      [
        "ÑģÑĤÐ²",
        "Ðµ"
      ],
      [
        "ĠÐ½",
        "ÐµÐ·"
      ],
      [
        "Ðº",
        "Ð¸Ð¼"
      ],
      [
        "ĠÑģ",
        "Ð´"
      ],
      [
        "ĠÐ²Ñĭ",
        "Ð±"
      ],
      [
        "Ð¾Ð´",
        "ÑĥÑĪ"
      ],
      [
        "ÑĤÐµÑĢ",
        "ÐµÑģ"
      ],
      [
        "ĠÐ¿ÑĢ",
        "Ð¾Ð¿"
      ],
      [
        "Ð°Ðº",
        "Ð¾Ð²"
      ],
      [
        "ĠÐ¶",
        "Ð´"
      ],
      [
        "Ñı",
        "Ð»Ð¸"
      ],
      [
        "ĠÐ¼",
        "Ð¸Ñħ"
      ],
      [
        "ĠÑĢ",
        "Ð¾Ñģ"
      ],
      [
        "ĠÐ²Ð¿",
        "ÑĢÐ¾Ñĩ"
      ],
      [
        "ĠÐ²Ð¿ÑĢÐ¾Ñĩ",
        "ÐµÐ¼"
      ],
      [
        "ĠÑĩ",
        "Ð°"
      ],
      [
        "ĠÐ¿ÑĢ",
        "Ð¾Ðº"
      ],
      [
        "ĠÐ³Ð¾Ð²Ð¾ÑĢ",
        "Ð¸Ð»Ð°"
      ],
      [
        "ĠÑĤ",
        "ÐµÐ»"
      ],
      [
        "ĠÐ²Ñĭ",
        "ÑĪ"
      ],
      [
        "Ð³",
        "Ð¸"
      ],
      [
        "ĠÐ¸Ð¼",
        "ÐµÐ½Ð½Ð¾"
      ],
      [
        "ĠÑĤÐ²",
        "Ð¾"
      ],
      [
        "ÐµÐ²",
        "Ð°"
      ],
      [
        "Ð¾Ð»ÑĮ",
        "Ð·"
      ],
      [
        "ĠÐ¿ÑĢÑıÐ¼",
        "Ð¾"
      ],
      [
        "ĠÐº",
        "Ð°Ð¿"
      ],
      [
        "ĠÑĢÐ°ÑģÑģÐº",
        "Ð°Ð·"
      ],
      [
        "Ð»Ð¸ÑĪ",
        "ÐºÐ¾Ð¼"
      ],
      [
        "ĠÐ´",
        "Ð½Ñı"
      ],
      [
        "Ð¸Ðº",
        "Ð¸"
      ],
      [
        "ĠÐ¿Ð¾Ðº",
        "Ð°"
      ],
      [
        "ĠÑģ",
        "ÐµÑģÑĤ"
      ],
      [
        "ĠÑģ",
        "Ð»Ð¸ÑĪÐºÐ¾Ð¼"
      ],
      [
        "ĠÑģÑĤÐ¾",
        "ÑıÐ»"
      ],
      [
        "ĠÐ¿Ð¾Ð´ÑĥÐ¼",
        "Ð°Ð»"
      ],
      [
        "ĠÐ´",
        "ÑĥÑħ"
      ],
      [
        "ĠÐ¾ÑĤÐ²ÐµÑĤ",
        "Ð¸Ð»"
      ],
      [
        "ĠÐ¿",
        "ÐµÑĩ"
      ],
      [
        "ĠÐºÐ°Ðº",
        "Ð¸Ðµ"
      ],
      [
        "ĠÐº",
        "ÑĥÐ¿"
      ],
      [
        "ĠÐ¾Ð´",
        "Ð½Ð¾Ð¹"
      ],
      [
        "ĠÐ½ÐµÐº",
        "Ð¾ÑĤÐ¾ÑĢ"
      ],
      [
        "Ð°Ð´ÑĨ",
        "Ð°ÑĤÑĮ"
      ],
      [
        "Ð¾Ð±ÑĢ",
        "Ð°Ð¶"
      ],
      [
        "ĠÐ´",
        "ÑĥÑĢ"
      ],
      [
        "ĠÐ²Ð¾Ñģ",
        "Ð¿"
      ],
      [
        "Ð½",
        "ÐµÑģ"
      ],
      [
        "ĠÐ¸Ð·",
        "Ð¼"
      ],
      [
        "Ð°ÑĤ",
        "Ð¸"
      ],
      [
        "ĠÑģÐ°Ð¼",
        "Ð°"
      ],
      [
        "Ð°",
        "Ð½Ð¾"
      ],
      [
        "ÐµÐ½",
        "Ð½Ð°Ñı"
      ],
      [
        "ĠÑįÑĤ",
        "Ð¸Ð¼"
      ],
      [
        "ĠÑģÐ¾Ð»",
        "Ð½"
      ],
      [
        "ĠÐ¿Ð¾",
        "ÑĪÐµÐ»"
      ],
      [
        "ĠÑĪ",
        "ÐµÐ»"
      ],
      [
        "ĠÐ³Ð¾Ð»Ð¾Ñģ",
        "Ð¾Ð¼"
      ],
      [
        "ĠÐ¿ÑĢÐ¸Ñħ",
        "Ð¾Ð´"
      ],
      [
        "ÑĤ",
        "Ð°ÐºÐ¸"
      ],
      [
        "ĠÐ³Ð»ÑıÐ´",
        "Ñı"
      ],
      [
        "ÑĤÐ¾ÑĢ",
        "Ð°"
      ],
      [
        "ĠÐ¾",
        "Ð½Ð¾"
      ],
      [
        "Ð¼",
        "ÐµÑĤ"
      ],
      [
        "Ñİ",
        "ÑĪ"
      ],
      [
        "ÑĢÐ°",
        "Ñĩ"
      ],
      [
        "Ð²",
        "Ð¾Ð·"
      ],
      [
        "Ñĭ",
        "Ð¿"
      ],
      [
        "ĠÐ³Ð»",
        "ÑĥÐ±"
      ],
      [
        "ĠÑģÐ¿",
        "ÑĢÐ°ÑĪ"
      ],
      [
        "ĠÐ´",
        "ÐµÑģÑı"
      ],
      [
        "ĠÐ½Ð°Ð·",
        "Ð°Ð´"
      ],
      [
        "Ð°Ð½",
        "Ð½Ð¾"
      ],
      [
        "ĠÐ²Ð¾ÑĢ",
        "Ð¾ÑĤ"
      ],
      [
        "Ñĩ",
        "ÐµÑĤ"
      ],
      [
        "ĠÑĢ",
        "Ð¾ÑģÑĤ"
      ],
      [
        "Ð²ÐµÑĢ",
        "Ð´"
      ],
      [
        "ĠÐ½Ð¾Ð³",
        "Ð¸"
      ],
      [
        "ĠÐ¿ÑĢÐ¾Ð´Ð¾Ð»Ð¶",
        "Ð°Ð»"
      ],
      [
        "ĠÑģ",
        "ÑĥÐ¼"
      ],
      [
        "ÐµÐ¶",
        "Ð´"
      ],
      [
        "Ð¸Ð²ÑĪ",
        "Ð¸ÑģÑĮ"
      ],
      [
        "ÑĤ",
        "Ð¸ÑĢ"
      ],
      [
        "Ð½",
        "ÐµÐ³Ð¾"
      ],
      [
        "ÑĨ",
        "Ð¸"
      ],
      [
        "ĠÑĢ",
        "ÐµÐ·"
      ],
      [
        "Ð¸Ðº",
        "Ð¾Ð²"
      ],
      [
        "ĠÐ¿Ð¾Ð¶Ð°Ð»",
        "ÑĥÐ¹"
      ],
      [
        "ÐµÐ»",
        "ÐµÐ½"
      ],
      [
        "ĠÐ¿ÑĢ",
        "Ð¸Ñĩ"
      ],
      [
        "Ð²",
        "Ð¸"
      ],
      [
        "ÑĭÐ»",
        "ÑĮ"
      ],
      [
        "ĠÐ½Ð°",
        "ÑĢÐ¾Ð´"
      ],
      [
        ".",
        "--"
      ],
      [
        "Ð»",
        "ÐµÐº"
      ],
      [
        "ĠÐ²ÐµÑģ",
        "ÐµÐ»"
      ],
      [
        "ĠÐ´",
        "Ð»Ð¸Ð½"
      ],
      [
        "ĠÐ¾Ð´",
        "Ð½Ð¾Ð³Ð¾"
      ],
      [
        "ĠÐ²Ñĭ",
        "Ð´"
      ],
      [
        "ÑıÑģ",
        "Ð½"
      ],
      [
        "ĠÐºÐ°Ðº",
        "Ð°Ñı"
      ],
      [
        "ĠÑĩ",
        "ÑĥÑĤÑĮ"
      ],
      [
        "ĠÐ¸ÑģÐ¿",
        "ÑĥÐ³"
      ],
      [
        "ĠÑĨ",
        "Ð²ÐµÑĤ"
      ],
      [
        "ĠÐ¼Ð¾",
        "ÐµÐ¹"
      ],
      [
        "Ð´",
        "Ð°ÑĤ"
      ],
      [
        "ĠÑĢÐ°Ð·",
        "ÑĥÐ¼"
      ],
      [
        "ĠÐ¾",
        "Ð·"
      ],
      [
        "ĠÐºÑĢ",
        "ÐµÐ¿"
      ],
      [
        "ĠÐ¸Ð²Ð°Ð½Ð¾Ð²",
        "Ð¸Ñĩ"
      ],
      [
        "ÑĪ",
        "ÐµÐ¹"
      ],
      [
        "ĠÑģÐ¾Ñģ",
        "ÑĤÐ¾"
      ],
      [
        "Ð¾Ð¼",
        "Ðµ"
      ],
      [
        "ĠÐ¼",
        "ÐµÐ»"
      ],
      [
        "ĠÐ¾",
        "ÑģÑĤÑĢ"
      ],
      [
        "ĠÐºÐ¾Ð½",
        "Ñĩ"
      ],
      [
        "ĠÑģ",
        "Ð¾Ð½"
      ],
      [
        "ÐµÐ½ÑĮ",
        "ÐºÐ°"
      ],
      [
        "ĠÐ»",
        "Ð¸ÑĪÑĮ"
      ],
      [
        "ÐµÐ³Ð¾Ð´",
        "Ð½Ñı"
      ],
      [
        "ĠÑĢ",
        "ÐµÐ²"
      ],
      [
        "ĠÐ»",
        "Ð°Ñģ"
      ],
      [
        "ĠÐ´",
        "Ð¸Ð²"
      ],
      [
        "ĠÑĤ",
        "Ð¾Ð²Ð°ÑĢ"
      ],
      [
        "Ðº",
        "Ð¸Ñħ"
      ],
      [
        "ĠÐ±",
        "ÑĥÐ¼"
      ],
      [
        "ĠÑĢ",
        "Ð°Ð½"
      ],
      [
        "ĠÐ¿ÑĢ",
        "Ð¸Ð³"
      ],
      [
        "ĠÑĥÐ·",
        "Ð½"
      ],
      [
        "ĠÐµ",
        "Ð²"
      ],
      [
        "ĠÐ·Ð°",
        "Ñħ"
      ],
      [
        "Ð²",
        "Ð¸Ð½"
      ],
      [
        "Ð¾Ð»",
        "Ð¾"
      ],
      [
        "ĠÐ²Ð¾Ð·",
        "Ð´"
      ],
      [
        "ĠÑģ",
        "ÐµÐ³Ð¾Ð´Ð½Ñı"
      ],
      [
        "ĠÐºÐ¾ÑĤÐ¾ÑĢ",
        "ÑĥÑİ"
      ],
      [
        "ĠÑĢ",
        "ÐµÑĩ"
      ],
      [
        "ÑĨ",
        "Ð¸Ð¸"
      ],
      [
        "ĠÐ´",
        "Ð¾Ñĩ"
      ],
      [
        "ÐºÐ¾",
        "Ðµ"
      ],
      [
        "ĠÐ²",
        "Ð½Ñĥ"
      ],
      [
        "ĠÑģ",
        "ÑĩÐ°ÑģÑĤ"
      ],
      [
        "ÐµÑĢ",
        "Ð±"
      ],
      [
        "ĠÐºÑĢ",
        "Ð¸Ñĩ"
      ],
      [
        "ĠÐ¿ÑĢÐµÐº",
        "ÑĢÐ°Ñģ"
      ],
      [
        "ÐµÐ»",
        "ÐµÐ¹"
      ],
      [
        "ÑģÑĤ",
        "Ð°"
      ],
      [
        "ĠÑĢ",
        "ÐµÐ±"
      ],
      [
        "Ð¸Ðº",
        "Ð°"
      ],
      [
        "ÑĪ",
        "ÐµÐ³Ð¾"
      ],
      [
        "ÑĥÐ",
        "³Ð¾"
      ],
      [
        "ĠÐ·Ð½Ð°",
        "ÐµÑĤ"
      ],
      [
        "ĠÐ²",
        "ÑĤÐ¾ÑĢ"
      ],
      [
        "ĠÐ¼Ð°ÑĤ",
        "ÐµÑĢÐ¸"
      ],
      [
        "ĠÑı",
        "ÑĢ"
      ],
      [
        "ĠÑĤ",
        "Ñĥ"
      ],
      [
        "ĠÑĢ",
        "Ð¾Ð¼"
      ],
      [
        "ĠÐºÐ¾ÑĤÐ¾ÑĢ",
        "Ð¾Ðµ"
      ],
      [
        "ĠÐ²ÑĭÑģ",
        "Ð¾Ðº"
      ],
      [
        "ĠÐ¾ÑĦÐ¸ÑĨ",
        "ÐµÑĢ"
      ],
      [
        "ĠÑģ",
        "Ñİ"
      ],
      [
        "ĠÐ¼",
        "Ð°Ðº"
      ],
      [
        "Ð½",
        "ÐµÑĤ"
      ],
      [
        "Ð°Ð½",
        "Ð´ÑĢ"
      ],
      [
        "ĠÐ´Ð²",
        "Ð¸Ð¶"
      ],
      [
        "ĠÑĤ",
        "ÐµÑħ"
      ],
      [
        "ĠÐ»Ð¸ÑĨ",
        "Ð°"
      ],
      [
        "ĠÑģÐ¾Ð»",
        "Ð´Ð°ÑĤ"
      ],
      [
        "ĠÑģÐºÐ¾ÑĢ",
        "Ð¾"
      ],
      [
        "ĠÑģ",
        "ÑĩÐ¸ÑĤ"
      ],
      [
        "ĠÐ²Ñĭ",
        "Ð³"
      ],
      [
        "ĠÐ²ÑģÐ¿",
        "Ð¾Ð¼Ð½"
      ],
      [
        "ĠÐ³Ð¾",
        "ÑĤÐ¾Ð²"
      ],
      [
        "ĠÐ·Ð½Ð°",
        "ÐµÑĤÐµ"
      ],
      [
        "ĠÐ¼",
        "Ð¾Ðµ"
      ],
      [
        "ĠÐ¸Ð·",
        "Ð±"
      ],
      [
        "ĠÐ½",
        "ÐµÑĢ"
      ],
      [
        "ĠÐ»",
        "Ð°Ð´"
      ],
      [
        "ĠÐ·Ð°Ð¼",
        "ÐµÑĩ"
      ],
      [
        "ĠÐ²Ñĭ",
        "ÑĪÐµÐ»"
      ],
      [
        "ĠÐ½Ð°",
        "ÑĢ"
      ],
      [
        "ĠÑģ",
        "ÐµÐº"
      ],
      [
        "ĠÑĢÑĥ",
        "Ðº"
      ],
      [
        "ĠÐ²Ð¾Ñģ",
        "Ðº"
      ],
      [
        "ĠÐ¾Ð±",
        "ÐµÐ´"
      ],
      [
        "ĠÐ´Ð²",
        "Ðµ"
      ],
      [
        "ĠÐ¸Ð½",
        "Ð¾Ð³Ð´Ð°"
      ],
      [
        "ÑģÐº",
        "Ð°Ñı"
      ],
      [
        "ĠÐ¾ÑĤÐ²ÐµÑĩ",
        "Ð°Ð»"
      ],
      [
        "ÑĤ",
        "ÑĢÐ°"
      ],
      [
        "Ð¸Ðµ",
        "Ñħ"
      ],
      [
        "ÑĤÐ¾ÑĢ",
        "Ð¾Ð¶"
      ],
      [
        "ĠÐ¿Ð»",
        "Ð°ÑĤ"
      ],
      [
        "ÑģÑĤÑĮ",
        "Ñİ"
      ],
      [
        "Ð¾ÑĢ",
        "Ð°"
      ],
      [
        "ĠÐ¿ÑĮ",
        "ÐµÑĢ"
      ],
      [
        ")",
        "."
      ],
      [
        "Ġ",
        "'"
      ],
      [
        "ÑģÑı",
        "Ñĩ"
      ],
      [
        "ĠÐºÐ¾ÑĤÐ¾ÑĢ",
        "ÑĭÑħ"
      ],
      [
        "ĠÑĤÐ¾Ð»",
        "Ð¿"
      ],
      [
        "ĠÐµ",
        "Ð¶"
      ],
      [
        "ĠÐ·Ð°Ñĩ",
        "ÐµÐ¼"
      ],
      [
        "ĠÐ¿ÑĢ",
        "Ð¸ÐµÑħ"
      ],
      [
        "Ð»",
        "Ð¾Ð¼"
      ],
      [
        "Ð°Ð²ÑĪ",
        "Ð¸Ð¹"
      ],
      [
        "ĠÑĢÐ°ÑģÑģÐº",
        "Ð°Ð·ÑĭÐ²"
      ],
      [
        "ĠÐ½",
        "Ð¸Ð¼Ð¸"
      ],
      [
        "Ð·",
        "Ð°"
      ],
      [
        "ÑģÐº",
        "Ð¾Ð¼"
      ],
      [
        "ĠÐ¸Ð½",
        "ÑĤÐµÑĢÐµÑģ"
      ],
      [
        "Ð¾Ð±",
        "Ð¾Ð´"
      ],
      [
        "ÐµÑģ",
        "Ñģ"
      ],
      [
        "ĠÐ²",
        "Ñĩ"
      ],
      [
        "Ð»",
        "ÑĥÑĪ"
      ],
      [
        "ĠÐ´Ð¾Ð»Ð¶",
        "ÐµÐ½"
      ],
      [
        "ĠÐ¼Ð¾Ñģ",
        "Ðº"
      ],
      [
        "ĠÑģÐ¾Ð³",
        "Ð»Ð°Ñģ"
      ],
      [
        "Ð½Ð¾ÑģÑĤÑĮ",
        "Ñİ"
      ],
      [
        "ĠÐ»",
        "Ð¸ÑĤ"
      ],
      [
        "ĠÐ±Ð»",
        "Ð¸Ð·"
      ],
      [
        "ĠÐ°Ð»ÐµÐºÑģ",
        "Ð°Ð½Ð´ÑĢ"
      ],
      [
        "ĠÐ½ÐµÐ¿ÑĢ",
        "Ð¸ÑıÑĤ"
      ],
      [
        "ÑĥÑĢ",
        "Ð³"
      ],
      [
        "ĠÐ´",
        "ÐµÐ½"
      ],
      [
        "ĠÐ¼",
        "Ð°Ð»Ð¾"
      ],
      [
        "ĠÐº",
        "Ð¾Ð³Ð¾"
      ],
      [
        "ĠÐ²ÑĢÐµÐ¼",
        "ÐµÐ½Ð¸"
      ],
      [
        "ĠÐ¾Ð±",
        "ÑīÐµ"
      ],
      [
        "ĠÐ²Ð°ÑĢ",
        "Ð²Ð°ÑĢ"
      ],
      [
        "ĠÑģÐº",
        "Ð¾Ð»ÑĮÐºÐ¾"
      ],
      [
        "ĠÐ¾Ð±",
        "ÑĢÐ°Ñī"
      ],
      [
        "ĠÐ´Ð²",
        "ÑĥÑħ"
      ],
      [
        "ĠÐ´Ð¾Ð²Ð¾Ð»ÑĮ",
        "Ð½Ð¾"
      ],
      [
        "Ð¾Ð²",
        "Ð°Ð»Ð°"
      ],
      [
        "Ð¾Ð»",
        "Ñİ"
      ],
      [
        "ÐµÑĢÑĤ",
        "Ð²"
      ],
      [
        "ĠÑĢÑĥ",
        "ÐºÐ°Ð¼Ð¸"
      ],
      [
        "Ð¾Ð½",
        "Ñĩ"
      ],
      [
        "ĠÐ°",
        "Ñħ"
      ],
      [
        "ĠÑģÐ¾Ð±",
        "Ð¾Ð¹"
      ],
      [
        "ĠÑĪ",
        "ÐµÐ¿"
      ],
      [
        "Ð¾Ð¼",
        "Ð¸Ð½Ð°"
      ],
      [
        "ĠÐ»",
        "ÐµÑģ"
      ],
      [
        "ĠÐ²ÑģÑĤÑĢ",
        "ÐµÑĩ"
      ],
      [
        "ĠÐ¶",
        "Ð¸ÑĤÑĮ"
      ],
      [
        "ĠÐ¿ÐµÑĢÐ²",
        "ÑĭÐ¹"
      ],
      [
        "ĠÐºÑĢ",
        "ÐµÑģÑĤ"
      ],
      [
        "ĠÑģÐ»Ð¾Ð²",
        "Ð¾"
      ],
      [
        "ĠÑħÐ¾Ñĩ",
        "Ñĥ"
      ],
      [
        "ĠÐ½Ð¸Ðº",
        "ÑĤÐ¾"
      ],
      [
        "ĠÑĦÑĢÐ°Ð½ÑĨ",
        "ÑĥÐ·"
      ],
      [
        "ĠÐ´",
        "Ð°Ð»ÑĮ"
      ],
      [
        "ĠÐ³Ð¾Ð»Ð¾Ð²",
        "Ð¾Ð¹"
      ],
      [
        "ĠÐ¼Ñĭ",
        "ÑģÐ»Ð¸"
      ],
      [
        "ĠÐº",
        "Ð°Ð±"
      ],
      [
        "Ð¸ÑĨ",
        "Ð°"
      ],
      [
        "ĠÐ±ÑĥÐ´",
        "Ñĥ"
      ],
      [
        "ĠÐ¼Ð°Ð»",
        "ÐµÐ½ÑĮÐº"
      ],
      [
        "ÐºÐ¾",
        "Ñİ"
      ],
      [
        "ĠÑĥÐ´",
        "Ð°ÑĢ"
      ],
      [
        "Ð¾Ð»",
        "Ð½"
      ],
      [
        "Ð¸ÑĤ",
        "Ð°"
      ],
      [
        "Ð¾Ð¿",
        "ÑĭÑĤ"
      ],
      [
        "ĠÐ´",
        "Ð¾Ð½"
      ],
      [
        "ĠÐ½Ðµ",
        "Ñİ"
      ],
      [
        "Ñĥ",
        "Ñı"
      ],
      [
        "ĠÐ¼",
        "Ð°Ñģ"
      ],
      [
        "ĠÐ´ÑĢ",
        "Ð¾Ð¶"
      ],
      [
        "ĠÑģÐ¸Ð´",
        "ÐµÐ»"
      ],
      [
        "ĠÐºÑĢ",
        "Ð¾Ð¼Ðµ"
      ],
      [
        "Ð°Ð½",
        "Ð½ÑĭÐ¹"
      ],
      [
        "ĠÐ²",
        "ÑĢ"
      ],
      [
        "ĠÐ±",
        "Ð°ÑĤ"
      ],
      [
        "ĠÐ¾ÑĤ",
        "ÑĨÐ°"
      ],
      [
        "ĠÐºÐ°Ðº",
        "Ð¾Ðµ"
      ],
      [
        "ÑĢ",
        "Ñı"
      ],
      [
        "Ð°Ð½",
        "Ñĭ"
      ],
      [
        "Ð¾ÑģÑĤ",
        "ÑĮÑİ"
      ],
      [
        "Ð´",
        "ÐµÑĤ"
      ],
      [
        "ĠÐ±Ð»",
        "ÐµÐ´"
      ],
      [
        "Ð»",
        "Ñĥ"
      ],
      [
        "ĠÐ½Ð¾Ñĩ",
        "ÑĮ"
      ],
      [
        "Ð¸Ð²",
        "Ð°Ð»Ð°"
      ],
      [
        "Ð¸Ñģ",
        "ÑĤÐ¾"
      ],
      [
        "ĠÐ¼Ð¾Ð³",
        "Ð»Ð°"
      ],
      [
        "ĠÐ½",
        "ÐµÐ½"
      ],
      [
        "ĠÐ·Ð°ÑĤ",
        "ÐµÐ¼"
      ],
      [
        "ÑģÑĤÐ²",
        "Ð¸Ðµ"
      ],
      [
        "ÑĭÐ²",
        "Ð°ÑĤÑĮ"
      ],
      [
        "ĠÑĤÑĭ",
        "ÑģÑıÑĩ"
      ],
      [
        "ĠÐ¿",
        "ÑıÑĤÑĮ"
      ],
      [
        "ÑĪ",
        "Ð¸Ñħ"
      ],
      [
        "ĠÑĤÐ¾Ð²Ð°ÑĢ",
        "Ð¸Ñī"
      ],
      [
        "ĠÑī",
        "ÐµÐº"
      ],
      [
        "Ð½Ð¸Ðº",
        "Ð¸"
      ],
      [
        "Ð¸Ð²",
        "Ð°ÑıÑģÑĮ"
      ],
      [
        "ÑĨ",
        "ÐµÐ¼"
      ],
      [
        "ĠÑĪ",
        "ÑĤ"
      ],
      [
        "ÑĪ",
        "Ð¸Ðµ"
      ],
      [
        "ĠÐ´",
        "Ñĥ"
      ],
      [
        "ĠÐºÐ¾Ð¼Ð½Ð°",
        "ÑĤÐµ"
      ],
      [
        "ĠÐ¿ÑĢÐ¸Ð±",
        "Ð°Ð²"
      ],
      [
        "Ð²",
        "Ð¾Ð´"
      ],
      [
        "ĠÑģÑĤÐ¾ÑĢÐ¾Ð½",
        "Ñĭ"
      ],
      [
        "ĠÐ¼Ð¾",
        "ÐµÐ³Ð¾"
      ],
      [
        "ÑģÐº",
        "Ð¸Ð¼"
      ],
      [
        "Ð½Ð°",
        "ÑĤÑĮ"
      ],
      [
        "ĠÐ¿ÑĢ",
        "Ð¸Ð»"
      ],
      [
        "ĠÐ´",
        "Ð¾Ð±"
      ],
      [
        "ĠÐ³ÑĢ",
        "ÑĥÐ´"
      ],
      [
        "Ð°Ð»ÑĮ",
        "Ð½Ð¾"
      ],
      [
        "Ð°Ðº",
        "Ð°"
      ],
      [
        "ÑģÐº",
        "Ð¸"
      ],
      [
        "ĠÑģ",
        "ÑĥÑīÐµ"
      ],
      [
        "Ðº",
        "Ð¾Ð³Ð¾"
      ],
      [
        "ĠÑĢ",
        "Ð°ÑģÑĤ"
      ],
      [
        "ĠÐ¿Ð¾Ð´",
        "Ð½ÑıÐ»"
      ],
      [
        "ĠÐ¼",
        "ÑĥÑĩ"
      ],
      [
        "ĠÐ¾Ñģ",
        "Ð²"
      ],
      [
        "ĠÐ´Ð¾Ð»Ð¶",
        "Ð½Ð¾"
      ],
      [
        "Ð¿",
        "Ð¾Ð»"
      ],
      [
        "ĠÐ¾Ðº",
        "Ð¾Ð»Ð¾"
      ],
      [
        "Ð¾ÑĢ",
        "Ð¼"
      ],
      [
        "ĠÑģÐº",
        "ÑĢ"
      ],
      [
        "ĠÐ´Ð²",
        "ÐµÑĢÐ¸"
      ],
      [
        "ĠÐ¼Ð¾ÑģÐº",
        "Ð²"
      ],
      [
        "Ð¾Ñħ",
        "Ð¾ÑĤ"
      ],
      [
        "ĠÐ¿",
        "Ð°Ð¿"
      ],
      [
        "ĠÑĢÐ°Ð·Ð²",
        "Ðµ"
      ],
      [
        "ÐµÑĩ",
        "Ð°ÑĤ"
      ],
      [
        "ĠÐ¼Ð½",
        "Ð¾Ð³"
      ],
      [
        "ĠÐ±Ð»Ð°Ð³",
        "Ð¾Ð´"
      ],
      [
        "ĠÐ·",
        "ÑĥÐ±"
      ],
      [
        "ĠÐ¾Ð±",
        "Ð»"
      ],
      [
        "ĠÐ¼ÑĭÑģÐ»",
        "ÑĮ"
      ],
      [
        "ĠÐ³Ð¾",
        "ÑģÑĥÐ´"
      ],
      [
        "ĠÐ°Ð½Ð´ÑĢ",
        "ÐµÐ¹"
      ],
      [
        "ĠÑħÐ¾Ð·Ñı",
        "Ð¹"
      ],
      [
        "ĠÐ¿ÑĢ",
        "Ð¾Ð¼"
      ],
      [
        "ĠÑģÐ°Ð¼",
        "Ð¾Ð¼"
      ],
      [
        "ĠÑģÐ¼Ð¾ÑĤÑĢ",
        "ÐµÐ»"
      ],
      [
        "Ð±",
        "Ñĭ"
      ],
      [
        "ĠÐ¿ÑĢÐ¸Ðº",
        "Ð°Ð·"
      ],
      [
        "ĠÐ¿ÐµÑĢ",
        "ÐµÑģÑĤ"
      ],
      [
        "ĠÑĩÐ°Ñģ",
        "ÑĤÐ¾"
      ],
      [
        "ÑģÐº",
        "ÑĥÑİ"
      ],
      [
        "ĠÐµ",
        "Ñħ"
      ],
      [
        "ĠÐ¿",
        "ÑĥÑĤ"
      ],
      [
        "ĠÑĩ",
        "ÑĢÐµÐ·"
      ],
      [
        "ĠÑģÐ¼",
        "Ðµ"
      ],
      [
        "ĠÐºÐ¾Ð¼Ð½Ð°",
        "ÑĤÑĥ"
      ],
      [
        "ĠÐ²",
        "Ð°Ð»"
      ],
      [
        "Ð½Ð°",
        "ÑĤ"
      ],
      [
        "ĠÐº",
        "Ð¾Ñģ"
      ],
      [
        "ĠÑĤÐ¾Ð»",
        "ÑģÑĤ"
      ],
      [
        "ĠÐ·Ð°",
        "ÑģÑĤÐ°Ð²"
      ],
      [
        "ĠÐ½",
        "ÑĢÐ°Ð²"
      ],
      [
        "ĠÐ¼",
        "Ð³"
      ],
      [
        "Ð¾",
        "ÑĦ"
      ],
      [
        "Ð°",
        "Ñī"
      ],
      [
        "ĠÐ³ÐµÐ½ÐµÑĢ",
        "Ð°Ð»"
      ],
      [
        "Ð½",
        "Ð¸Ñħ"
      ],
      [
        "ÑĥÑĪ",
        "ÐºÐ¸"
      ],
      [
        "ĠÐ·Ð°Ð¼ÐµÑĤ",
        "Ð¸Ð»"
      ],
      [
        "ĠÐ¼",
        "Ð½Ð¾Ð¹"
      ],
      [
        "ĠÑģÐ¼",
        "ÐµÑĪ"
      ],
      [
        "ĠÐ³Ð¾Ð²Ð¾ÑĢ",
        "Ñİ"
      ],
      [
        "ĠÑĩ",
        "ÑĥÐ´"
      ],
      [
        "ĠÐºÐ¾ÑĢ",
        "Ð¾ÑĤ"
      ],
      [
        "Ð¼",
        "Ð°ÑĤÑĢ"
      ],
      [
        "ĠÐ´",
        "Ð¾Ð²"
      ],
      [
        "ĠÐºÑĢ",
        "Ð°Ð¹"
      ],
      [
        "ÑģÐº",
        "Ð°"
      ],
      [
        "ĠÐ°",
        "Ð´"
      ],
      [
        "ĠÑģÐ¿ÑĢÐ¾Ñģ",
        "Ð¸Ð»Ð°"
      ],
      [
        "ÑĢ",
        "Ð¸Ðº"
      ],
      [
        "ĠÑĢÐ°Ð·",
        "Ð¼"
      ],
      [
        "ĠÑĥ",
        "ÑĪ"
      ],
      [
        "ÐµÐ¶",
        "Ð°Ð»"
      ],
      [
        "Ð¸Ð²",
        "Ð°Ð»Ð¸"
      ],
      [
        "ÐµÐ»",
        "Ñİ"
      ],
      [
        "Ð¾Ð¶",
        "Ð¸Ð´"
      ],
      [
        "ĠÐ·Ð°Ð²",
        "ÑĤÑĢÐ°"
      ],
      [
        "ĠÐ²Ð¾Ð·",
        "Ð¼Ð¾Ð¶"
      ],
      [
        "ĠÑĪ",
        "ÑĥÐ¼"
      ],
      [
        "ĠÐ²Ñĭ",
        "Ð·"
      ],
      [
        "ĠÑĢÐ°Ñģ",
        "Ðº"
      ],
      [
        "ĠÐ´ÐµÐ¹ÑģÑĤÐ²",
        "Ð¸ÑĤÐµÐ»ÑĮÐ½Ð¾"
      ],
      [
        "ĠÐ¿ÐµÑĢ",
        "ÐµÐ²"
      ],
      [
        "ĠÐ²Ð·Ð´",
        "Ð¾Ñħ"
      ],
      [
        "ÑıÑĤ",
        "Ð½Ð¾"
      ],
      [
        "ĠÐ½Ð°Ð¿",
        "ÑĢÐ°Ð²"
      ],
      [
        "ĠÑı",
        "Ð·"
      ],
      [
        "ĠÑģÐ²Ð¾",
        "ÐµÐ¼"
      ],
      [
        "ĠÐ´",
        "Ð¾Ð³"
      ],
      [
        "Ð°Ð·",
        "Ð´"
      ],
      [
        "ĠÐ¾Ð½",
        "ÑĬ"
      ],
      [
        "ĠÐ²",
        "Ð°Ð¶"
      ],
      [
        "ĠÐ²ÑģÑĤÑĢ",
        "ÐµÑĤ"
      ],
      [
        "ĠÐ¶ÐµÐ½Ñī",
        "Ð¸Ð½Ð°"
      ],
      [
        "ĠÐ²",
        "ÐµÑī"
      ],
      [
        "ĠÐ¼Ð°Ð»ÑĮ",
        "ÑĩÐ¸Ðº"
      ],
      [
        "ĠÐ¼Ð¾Ð»",
        "ÑĩÐ°"
      ],
      [
        "ĠÐ½",
        "Ð°Ð¹"
      ],
      [
        "ĠÑĢ",
        "Ð¾Ð·"
      ],
      [
        "ĠÑģ",
        "Ð°Ð¼Ð¸"
      ],
      [
        "Ð°ÑİÑĤ",
        "ÑģÑı"
      ],
      [
        "ĠÐ²Ð¸Ð´",
        "Ð½Ð¾"
      ],
      [
        "ĠÐ¼",
        "ÐµÑģÑĤÐ¾"
      ],
      [
        "ĠÐ½",
        "Ð°Ð»"
      ],
      [
        "ĠÐ´ÐµÐ»",
        "Ð°ÑĤÑĮ"
      ],
      [
        "ĠÑĢÑıÐ´",
        "Ð¾Ð¼"
      ],
      [
        "Ð¾Ð»",
        "Ð¾ÑĤ"
      ],
      [
        "ĠÑģ",
        "Ð¸Ð½"
      ],
      [
        "ĠÑĢÑĥ",
        "ÐºÐ¾Ð¹"
      ],
      [
        "ĠÐ²",
        "Ð¾Ð²"
      ],
      [
        "ĠÑĩÑĥÐ²ÑģÑĤÐ²",
        "Ð¾Ð²Ð°Ð»"
      ],
      [
        "ĠÑĤÐ°Ðº",
        "Ð¸Ðµ"
      ],
      [
        "ĠÐ²Ð·",
        "ÑıÐ»"
      ],
      [
        "ĠÐ°Ð½",
        "Ð³"
      ],
      [
        "ĠÐ¿Ð¾Ð´",
        "Ð½Ñı"
      ],
      [
        "ĠÐ¶",
        "ÐµÑģÑĤ"
      ],
      [
        "ĠÑĥÑģ",
        "Ð¼"
      ],
      [
        "ĠÑĩÐµÑĤ",
        "ÑĭÑĢ"
      ],
      [
        "ĠÐ·Ð´",
        "Ð¾ÑĢÐ¾Ð²"
      ],
      [
        "ĠÐ¿ÐµÑĢ",
        "ÐµÐ±"
      ],
      [
        "ĠÐ¿ÑĢÐ°Ð²",
        "Ð´Ð°"
      ],
      [
        "ĠÑĤ",
        "Ð¾Ð¹"
      ],
      [
        "ĠÐ´",
        "Ð°ÑĢ"
      ],
      [
        "ĠÑģÑĤÐ¾ÑĢÐ¾Ð½",
        "Ñĥ"
      ],
      [
        "ĠÐ³Ð¾Ð»",
        "ÑĥÐ±"
      ],
      [
        "ĠÐ³",
        "Ð¾Ð´Ð°"
      ],
      [
        "ĠÐ¿ÑĢÐ¾",
        "Ñī"
      ],
      [
        "ĠÑģÑĤ",
        "Ð°Ð»Ð°"
      ],
      [
        "ĠÐ³Ð¾Ð²Ð¾ÑĢ",
        "Ð¸Ð»Ð¸"
      ],
      [
        "ĠÐ¾Ðº",
        "Ð°Ð·"
      ],
      [
        "Ð¸Ð¶",
        "Ñĥ"
      ],
      [
        "ĠÑĤÐ°Ðº",
        "Ð¸Ð¼"
      ],
      [
        "ĠÐº",
        "Ð²Ð°ÑĢ"
      ],
      [
        "ĠÑĥ",
        "ÑģÑĤ"
      ],
      [
        "ĠÐ¿ÑĢ",
        "Ð¸ÑĤ"
      ],
      [
        "ĠÐ½Ðµ",
        "Ð¸Ð·"
      ],
      [
        "ÑĪÐµ",
        "Ðµ"
      ],
      [
        "ĠÐ¼Ð¾Ð»Ð¾Ð´",
        "Ð¾Ð¹"
      ],
      [
        "ĠÑĤÐ¾ÑĢ",
        "Ð¾Ð¿"
      ],
      [
        "ĠÐ²Ð¸Ð´",
        "ÐµÑĤÑĮ"
      ],
      [
        "ÐµÑħ",
        "Ð°Ð»"
      ],
      [
        "ĠÐ²Ð¾Ð·Ð´",
        "ÑĥÑħ"
      ],
      [
        "ĠÐ´ÐµÐ»",
        "Ðµ"
      ],
      [
        "ĠÐ¼",
        "ÐµÑĩ"
      ],
      [
        "ĠÑģÐº",
        "Ð²Ð¾Ð·"
      ],
      [
        "ĠÐ·Ð°Ð´",
        "ÑĥÐ¼"
      ],
      [
        "ĠÑĤ",
        "Ð°Ð½"
      ],
      [
        "ĠÐºÐ°Ðº",
        "Ð¸Ð¼"
      ],
      [
        "ĠÑģÐ²",
        "Ð¸Ð´"
      ],
      [
        "Ñģ",
        "ÑĤÐ¾"
      ],
      [
        "ĠÑģÐ°Ð¼",
        "Ð¾Ð³Ð¾"
      ],
      [
        "ÑĮ",
        "Ð¸"
      ],
      [
        "ĠÐ°Ð½",
        "Ð½Ð°"
      ],
      [
        "ĠÐ²",
        "Ð°Ð¼Ð¸"
      ],
      [
        "ĠÐ³",
        "ÐµÑĢ"
      ],
      [
        "ĠÐ»",
        "Ð¸Ð·"
      ],
      [
        "ĠÑĥ",
        "Ñħ"
      ],
      [
        "ĠÑģÑĤ",
        "Ð°Ð½Ð¾Ð²"
      ],
      [
        "ĠÑģ",
        "ÐµÐ»"
      ],
      [
        "ĠÐ²",
        "Ð°Ð½"
      ],
      [
        "ĠÐ¿ÐµÑĢ",
        "Ðµ"
      ],
      [
        "ĠÑģÑĤÑĢÐ°",
        "Ñħ"
      ],
      [
        "ĠÐ±",
        "ÐµÐ³"
      ],
      [
        "ÑīÐµ",
        "Ðµ"
      ],
      [
        "Ð¾Ð¼",
        "Ð¸Ð½"
      ],
      [
        "ĠÑģÑĤ",
        "ÐµÐ½"
      ],
      [
        "ĠÑĦ",
        "Ð¸Ð»"
      ],
      [
        "Ð½Ð¸ÑĨ",
        "Ñĭ"
      ],
      [
        "ĠÐ½",
        "Ñĭ"
      ],
      [
        "ĠÑį",
        "Ðº"
      ],
      [
        "ÑĪ",
        "Ð°Ñı"
      ],
      [
        "Ñĭ",
        "Ð³"
      ],
      [
        "ĠÐ´Ð°Ð»",
        "ÐµÐº"
      ],
      [
        "ÑıÐ»",
        "Ð°ÑģÑĮ"
      ],
      [
        "ÑģÑĤÐ²",
        "Ñĥ"
      ],
      [
        "Ð½Ð¸ÑĨ",
        "Ð°"
      ],
      [
        "ĠÐ¼",
        "ÐµÑģÑı"
      ],
      [
        "ĠÐ¿",
        "Ñĥ"
      ],
      [
        "Ð¼",
        "ÑĥÑĢ"
      ],
      [
        "ÐµÑĢÐ±",
        "ÑĥÑĢÐ³"
      ],
      [
        "Ð¸Ð½",
        "Ñı"
      ],
      [
        "ÐµÐ½ÑĮ",
        "ÐºÐ¸Ð¹"
      ],
      [
        "ĠÐ¿Ð¾Ñħ",
        "Ð¾Ð¶"
      ],
      [
        "ĠÐ¸",
        "ÑģÑĤ"
      ],
      [
        "Ð¾ÑĤ",
        "Ð°"
      ],
      [
        "ĠÐ»Ð¸ÑĨ",
        "Ðµ"
      ],
      [
        "ĠÐ¾Ðº",
        "Ð½Ð°"
      ],
      [
        "ĠÐ¿Ð¸ÑģÑĮ",
        "Ð¼Ð¾"
      ],
      [
        "ĠÐ¼",
        "Ð°Ð¼"
      ],
      [
        "ĠÑĩ",
        "ÑĥÐ¶"
      ],
      [
        "ĠÐ¿Ð»",
        "Ð°ÑĤÑĮ"
      ],
      [
        "ĠÑĤÑĢ",
        "ÐµÐ²"
      ],
      [
        "ĠÐ·Ð½Ð°",
        "Ñĩ"
      ],
      [
        "ĠÐ¿ÑĢ",
        "Ð¸ÑģÑĤ"
      ],
      [
        "ĠÐ¼Ð³",
        "Ð½Ð¾Ð²"
      ],
      [
        "ĠÑĤ",
        "Ð²ÐµÑĢÐ´"
      ],
      [
        "Ð¾Ð±",
        "Ñī"
      ],
      [
        "ÐµÐ½",
        "Ð½ÑĥÑİ"
      ],
      [
        "ĠÐµÐ´",
        "Ð²Ð°"
      ],
      [
        "ĠÐ¾",
        "Ð²"
      ],
      [
        "ĠÑģÐ¾Ð±",
        "Ð¾Ñİ"
      ],
      [
        "ĠÐ¼Ð¾",
        "Ð¸"
      ],
      [
        "Ð»Ñı",
        "ÑĤÑĮ"
      ],
      [
        "ÑıÑĤ",
        "ÐµÐ»ÑĮ"
      ],
      [
        "Ð¾Ð»",
        "Ñĩ"
      ],
      [
        "ĠÐ¿Ð¾ÑĤ",
        "ÑĢ"
      ],
      [
        "ĠÐµÐ´",
        "Ð¸Ð½"
      ],
      [
        "ĠÑģÐ»Ð¾Ð²",
        "Ð½Ð¾"
      ],
      [
        "ĠÐ´ÐµÐ½ÑĮ",
        "Ð³Ð¸"
      ],
      [
        "Ð¸",
        "ÑĤÐ¾"
      ],
      [
        "ĠÐ¿Ð¾Ñĩ",
        "ÑĥÐ²ÑģÑĤÐ²"
      ],
      [
        "ĠÐ¿ÐµÑĤ",
        "ÐµÑĢÐ±ÑĥÑĢÐ³"
      ],
      [
        "ĠÐ²ÐµÑĢ",
        "Ñħ"
      ],
      [
        "ÑĢÐ°Ð·",
        "Ñĥ"
      ],
      [
        "ĠÑĦÐµÐ´",
        "Ð¾ÑĢ"
      ],
      [
        "ĠÐ»ÑİÐ±Ð¾Ð²",
        "ÑĮ"
      ],
      [
        "Ð³",
        "Ð°"
      ],
      [
        "ĠÐ½Ð°Ñģ",
        "ÑĤÐ¾"
      ],
      [
        "ĠÑģÑĩÐ°ÑģÑĤ",
        "Ð»Ð¸Ð²"
      ],
      [
        "ĠÑĤ",
        "ÐµÑĤ"
      ],
      [
        "Ð½ÑĥÐ²",
        "ÑĪÐ¸ÑģÑĮ"
      ],
      [
        "ĠÐ´Ð°Ð²",
        "ÑĭÐ´"
      ],
      [
        "Ð¸Ð²",
        "Ð°ÐµÑĤ"
      ],
      [
        "ĠÐ¼",
        "ÐµÑĪ"
      ],
      [
        "ĠÐ¾ÑĤÐ¿",
        "ÑĢÐ°Ð²"
      ],
      [
        "ĠÑģ",
        "Ð¾ÑĢ"
      ],
      [
        "ĠÑģ",
        "ÐµÐ´"
      ],
      [
        "ĠÐ¿",
        "Ð»Ð°"
      ],
      [
        "ĠÐ¾Ð´",
        "Ð½Ñĥ"
      ],
      [
        "ĠÐºÐ°ÑĢ",
        "ÑĤ"
      ],
      [
        "ĠÑĤÑıÐ¶",
        "ÐµÐ»"
      ],
      [
        "ĠÑģÐ»",
        "Ð°Ð±"
      ],
      [
        "ĠÐºÐ¾ÑĤÐ¾ÑĢ",
        "Ð¾Ð¼"
      ],
      [
        "ĠÐ¾Ð¿",
        "Ð°Ñģ"
      ],
      [
        "ĠÐ´Ð¾Ðº",
        "ÑĤÐ¾ÑĢ"
      ],
      [
        "ĠÐ²",
        "Ð¾Ðº"
      ],
      [
        "ĠÐ´Ð¾Ð¼",
        "Ð¾Ð¹"
      ],
      [
        "ĠÑģ",
        "ÐµÑĢÑĮ"
      ],
      [
        "Ð±",
        "Ñĥ"
      ],
      [
        "ÑĭÑĩ",
        "Ð°Ð¹"
      ],
      [
        "ĠÑĢ",
        "ÐµÐ´"
      ],
      [
        "Ð¾Ð±",
        "ÑīÐµ"
      ],
      [
        "ĠÐ³Ð¾Ð²Ð¾ÑĢ",
        "ÑıÑĤ"
      ],
      [
        "ĠÐ¸Ñģ",
        "ÑĤÐ¾ÑĢ"
      ],
      [
        "ĠÐ½",
        "Ð°Ð·ÑĭÐ²"
      ],
      [
        "ĠÑģÐµÑĢ",
        "Ð³"
      ],
      [
        "ĠÐ»Ð¸ÑĨ",
        "Ð¾Ð¼"
      ],
      [
        "ĠÐ¼",
        "Ð¸Ð¼Ð¾"
      ],
      [
        "Ð¾ÑĪ",
        "Ð»Ð°"
      ],
      [
        "ĠÑĤÑĢ",
        "ÐµÐ±"
      ],
      [
        "ÑĤ",
        "Ð¾Ð¼"
      ],
      [
        "ĠÐ³Ð¾ÑĢ",
        "ÑıÑĩ"
      ],
      [
        "Ð¾Ð²",
        "Ð°Ð»Ð¸"
      ],
      [
        "ĠÑĩÑĥÐ²ÑģÑĤÐ²",
        "Ð¾"
      ],
      [
        "ĠÐ²Ð°ÑĪ",
        "Ðµ"
      ],
      [
        "ĠÐ±",
        "Ð°Ð»"
      ],
      [
        "ĠÑĥÐ»ÑĭÐ±",
        "Ð°ÑıÑģÑĮ"
      ],
      [
        "ĠÑģ",
        "Ð¾Ñĩ"
      ],
      [
        "Ð°Ð´",
        "Ð¸"
      ],
      [
        "ĠÑģÐ»",
        "Ð°Ð²"
      ],
      [
        "Ð¾ÑĤ",
        "Ñĭ"
      ],
      [
        "ĠÐ±Ð¾ÑĢ",
        "Ð¾Ð´"
      ],
      [
        "Ð¾Ñģ",
        "Ð¾Ð±"
      ],
      [
        "Ð½Ð¸",
        "Ð¸"
      ],
      [
        "ĠÐ»",
        "Ð¸ÑĪ"
      ],
      [
        "ĠÐ»",
        "Ð°Ð²"
      ],
      [
        "ĠÐ·Ð½Ð°",
        "ÑĤÑĮ"
      ],
      [
        "ĠÐ¿ÑĢÐ¸Ð½",
        "Ð¸Ð¼"
      ],
      [
        "ĠÑĤ",
        "Ð¾Ð±"
      ],
      [
        "ĠÐ¿Ð¾Ð»",
        "Ð¾Ð²"
      ],
      [
        "Ð°ÑĤ",
        "ÑĭÐ¹"
      ],
      [
        "ĠÑģÐ´ÐµÐ»",
        "Ð°ÑĤÑĮ"
      ],
      [
        "ĠÐºÐ°Ð¶Ð´",
        "ÑĭÐ¹"
      ],
      [
        "ĠÐ¼",
        "ÑıÐ³"
      ],
      [
        "Ð³Ð¾",
        "ÑĢ"
      ],
      [
        "Ð¾ÑĤ",
        "Ð¸Ð²"
      ],
      [
        "Ñģ",
        "Ð°"
      ],
      [
        "ĠÑħ",
        "ÑĥÐ´"
      ],
      [
        "ĠÐ¿Ð¾Ñģ",
        "Ð¿"
      ],
      [
        "ĠÑĪ",
        "ÑĥÑĤ"
      ],
      [
        "ĠÐ¾ÑĤ",
        "Ð½Ð¾ÑĪ"
      ],
      [
        "ĠÐ¾Ð±ÑĬ",
        "ÑıÑģÐ½"
      ],
      [
        "ĠÐ¾",
        "Ñī"
      ],
      [
        "Ð±",
        "Ð°"
      ],
      [
        "ĠÑĦ",
        "Ð»"
      ],
      [
        "Ð¾Ð²",
        "Ñĥ"
      ],
      [
        "ĠÐ·Ð½Ð°",
        "ÐµÑĪÑĮ"
      ],
      [
        "Ð¾ÑģÑĤ",
        "Ð°Ð²"
      ],
      [
        "ĠÐ·Ð°Ð½",
        "Ð¸Ð¼"
      ],
      [
        "ĠÐ±",
        "ÑĥÑĢ"
      ],
      [
        "ĠÐ·Ð½Ð°",
        "ÑĩÐ¸ÑĤ"
      ],
      [
        "Ð¸Ð½",
        "ÑĥÐ»"
      ],
      [
        "ÑĢÐ¸Ñĩ",
        "Ð°Ð»"
      ],
      [
        "ĠÐ¼",
        "Ð¾Ð½"
      ],
      [
        "ĠÐ¸ÑģÐ¿",
        "ÑĭÑĤ"
      ],
      [
        "Ð²",
        "Ð¾Ð»"
      ],
      [
        "ÐµÑĢ",
        "Ð´"
      ],
      [
        "ĠÐ½ÐµÐ¼",
        "Ð½Ð¾Ð³Ð¾"
      ],
      [
        "ĠÑģÐ²",
        "Ð¾Ð±Ð¾Ð´"
      ],
      [
        "Ð°Ð´",
        "ÑĮ"
      ],
      [
        "Ñĭ",
        "Ñģ"
      ],
      [
        "Ð°Ð½",
        "Ðµ"
      ],
      [
        "ĠÐ°",
        "ÑĤ"
      ],
      [
        "Ð¼Ð¾ÑĤÑĢ",
        "Ñı"
      ],
      [
        "ĠÐ´",
        "ÑĭÐ¼"
      ],
      [
        "Ð¸Ð¼",
        "ÑģÑı"
      ],
      [
        "ĠÐºÐ¾Ð¼Ð½Ð°",
        "ÑĤÑĭ"
      ],
      [
        "ĠÐ¿ÑĢÐ¾Ð³",
        "Ð¾Ð²Ð¾ÑĢÐ¸Ð»"
      ],
      [
        "ĠÑģÐºÐ²Ð¾Ð·",
        "ÑĮ"
      ],
      [
        "ĠÐ´ÑĢ",
        "ÑĥÐ¶"
      ],
      [
        "ĠÐ¼",
        "Ð°ÑĪ"
      ],
      [
        "Ð¸Ð²",
        "Ð¾"
      ],
      [
        "ĠÑģÑĤ",
        "Ð°Ð»Ð¸"
      ],
      [
        "ĠÑģÐ²",
        "ÑıÐ·"
      ],
      [
        "ÑıÑĤÑĮ",
        "ÑģÑı"
      ],
      [
        "ĠÑģÑİ",
        "Ð´Ð°"
      ],
      [
        "ĠÐ²",
        "Ð»Ð°"
      ],
      [
        "ĠÐ±ÐµÑģ",
        "Ñģ"
      ],
      [
        "ĠÑħÐ¾ÑĤÐµÐ»",
        "Ð¾ÑģÑĮ"
      ],
      [
        "ĠÐ¿ÑĢÐµÐ´",
        "Ð»Ð¾Ð¶"
      ],
      [
        "ĠÐ½",
        "Ð¸Ð·"
      ],
      [
        "ÑĤ",
        "Ñı"
      ],
      [
        "Ð°Ð½",
        "Ð¸ÐµÐ¼"
      ],
      [
        "ĠÐ½Ð¸ÐºÐ¾Ð»",
        "Ð°Ð¹"
      ],
      [
        "Ð½",
        "Ð¸Ñı"
      ],
      [
        "ĠÐ²Ð¿",
        "Ð¾Ð»"
      ],
      [
        "ĠÐ½ÐµÑħ",
        "Ð»ÑİÐ´"
      ],
      [
        "Ðµ",
        "ÐµÑĤ"
      ],
      [
        "ĠÑħ",
        "Ñĥ"
      ],
      [
        "ĠÐ±Ð»",
        "ÐµÑģÑĤ"
      ],
      [
        "ĠÐ¾Ð±",
        "Ñī"
      ],
      [
        "ĠÐ¾Ð±",
        "ÑĭÐºÐ½Ð¾Ð²"
      ],
      [
        "ĠÑģ",
        "ÑĥÑħ"
      ],
      [
        "ĠÐ´ÐµÐ»",
        "Ð°"
      ],
      [
        "ÑĩÐ°",
        "ÑģÑĤÑĮ"
      ],
      [
        "ÑĨ",
        "Ð¾Ð²"
      ],
      [
        "Ð¾Ñĩ",
        "ÐºÐ°"
      ],
      [
        "ÑĢÐµÐ¼",
        "ÐµÐ½Ð½Ð¾"
      ],
      [
        "ĠÑĢÐ°Ð´",
        "Ð¾ÑģÑĤ"
      ],
      [
        "ÑĢ",
        "Ð¾Ðº"
      ],
      [
        "Ð³",
        "Ð°ÑĢ"
      ],
      [
        "ĠÐº",
        "Ð°Ð»"
      ],
      [
        "ĠÐ¼ÐµÐ´",
        "Ð»ÐµÐ½Ð½Ð¾"
      ],
      [
        "ĠÐ¿ÑĢ",
        "ÐµÐ·"
      ],
      [
        "ÐµÑĤ",
        "Ñĭ"
      ],
      [
        "ĠÑĢÐ°Ð·",
        "Ð´ÑĢ"
      ],
      [
        "ĠÐ¿",
        "Ð°Ð»"
      ],
      [
        "Ð¸Ð´",
        "Ð½Ð¾"
      ],
      [
        "ĠÐ¿ÑĢ",
        "ÐµÐ²"
      ],
      [
        "ĠÐ½ÐµÑģ",
        "Ð¼Ð¾ÑĤÑĢÑı"
      ],
      [
        "ÐµÐ´",
        "Ð¸Ð½"
      ],
      [
        "ĠÐ¿ÐµÑĢ",
        "ÐµÐ¼"
      ],
      [
        "Ð¸ÑĨ",
        "Ñĥ"
      ],
      [
        "ĠÐ²Ð¾",
        "Ð¾Ð±ÑīÐµ"
      ],
      [
        "Ð°Ð½",
        "Ð¸Ð¸"
      ],
      [
        "ĠÐ¿Ð¾",
        "ÑĨ"
      ],
      [
        "Ð»ÑıÐ´",
        "ÑĭÐ²"
      ],
      [
        "Ð°Ð½",
        "Ð½ÑĭÐµ"
      ],
      [
        "ĠÐ¿Ð¾Ð·",
        "Ð´"
      ],
      [
        "Ð¸ÑĤÐµ",
        "ÑģÑĮ"
      ],
      [
        "Ð²",
        "Ð¸Ð¶"
      ],
      [
        "ĠÑģÐµÑĢÑĮ",
        "ÐµÐ·"
      ],
      [
        "ĠÐ²Ñĩ",
        "ÐµÑĢÐ°"
      ],
      [
        "ĠÐ²Ð¾ÑģÐº",
        "Ð»Ð¸Ðº"
      ],
      [
        "ĠÐ¿",
        "ÑĮÑı"
      ],
      [
        "ĠÐ±",
        "Ð¾Ðº"
      ],
      [
        "ĠÑĪ",
        "Ðº"
      ],
      [
        "ĠÐ½Ð°Ð²",
        "ÐµÑĢ"
      ],
      [
        "ĠÐ¿Ð¾",
        "ÑıÐ²"
      ],
      [
        "ĠÑģÐ¿",
        "Ð°Ñģ"
      ],
      [
        "ĠÑģ",
        "Ð¾ÑĤ"
      ],
      [
        "ĠÐ¿Ð¾Ð´",
        "Ð¾ÑĪÐµÐ»"
      ],
      [
        "ĠÐº",
        "ÑĥÑĤ"
      ],
      [
        "ĠÑĪÐ¸ÑĢ",
        "Ð¾Ðº"
      ],
      [
        "ĠÐ´",
        "Ð¼"
      ],
      [
        "ÑĨ",
        "Ð°Ð¼Ð¸"
      ],
      [
        "ÐµÑĢ",
        "Ð¿"
      ],
      [
        "ÑĩÐ¸Ð²",
        "Ð¾"
      ],
      [
        "Ð½Ñĥ",
        "Ð»Ð¸"
      ],
      [
        "ĠÑĢÐ°Ð·",
        "ÑĢ"
      ],
      [
        "ĠÐ±Ð»Ð°Ð³Ð¾Ð´",
        "Ð°ÑĢ"
      ],
      [
        "ĠÑĪ",
        "Ð»Ñı"
      ],
      [
        "ĠÑģÐ»ÑĥÑĩ",
        "Ð°"
      ],
      [
        "ĠÐ½Ð°Ð¿",
        "Ð¸Ñģ"
      ],
      [
        "Ð»",
        "Ð°Ð³"
      ],
      [
        "ÑģÐº",
        "Ð¾Ðµ"
      ],
      [
        "ĠÐ¿ÐµÑĤÑĢ",
        "Ð¾Ð²Ð¸Ñĩ"
      ],
      [
        "ĠÑģ",
        "ÑĢÐ°Ð·Ñĥ"
      ],
      [
        "ĠÐºÐ¾ÑĤÐ¾ÑĢ",
        "ÑĭÐ¼"
      ],
      [
        "ĠÐ¼",
        "ÐµÐ»ÑĮ"
      ],
      [
        "ĠÑģÐ°Ð¼",
        "Ð³"
      ],
      [
        "ĠÐ»ÑİÐ±",
        "Ð¾Ð¿ÑĭÑĤ"
      ],
      [
        "ĠÐºÑĢ",
        "ÐµÑģ"
      ],
      [
        "ĠÐ¼Ð¾",
        "Ñİ"
      ],
      [
        "Ð»Ñİ",
        "Ð±"
      ],
      [
        "ĠÑĢÐµÐ±",
        "ÐµÐ½"
      ],
      [
        "ĠÑģÑĢÐµÐ´",
        "Ð¸"
      ],
      [
        "ĠÐ¿ÑĢ",
        "Ð¾Ð½"
      ],
      [
        "ĠÑģÐ¾",
        "Ð¾Ð±Ñī"
      ],
      [
        "ĠÐ¿Ð¾Ð¼",
        "Ð½"
      ],
      [
        "ĠÐ¼Ð¸Ñħ",
        "Ð°Ð¹"
      ],
      [
        "ĠÐ´ÑĢÑĥÐ³",
        "Ð¸Ñħ"
      ],
      [
        "ĠÐ´ÑĥÐ¼",
        "Ð°Ñİ"
      ],
      [
        "ĠÐ¾Ð³",
        "ÑĢÐ¾Ð¼"
      ],
      [
        "ĠÐ¿",
        "Ð½"
      ],
      [
        "ĠÐ·",
        "Ð¾Ð»Ð¾ÑĤ"
      ],
      [
        "ĠÐ²Ð¾Ð²",
        "ÑģÐµ"
      ],
      [
        "ĠÑģÐ²",
        "ÐµÑĢ"
      ],
      [
        "ĠÑģÑĤ",
        "ÐµÐº"
      ],
      [
        "ĠÐ¿ÐµÑĤ",
        "ÑĢÐ¾Ð²"
      ],
      [
        "ĠÑĦ",
        "Ð¸Ð³"
      ],
      [
        "ĠÐ³Ð»Ð°Ð·",
        "Ð°Ñħ"
      ],
      [
        "ĠÐ´Ð¾Ð¼",
        "Ðµ"
      ],
      [
        "Ð¼",
        "ÐµÑĢ"
      ],
      [
        ",",
        "-"
      ],
      [
        "ĠÐ³Ð¾ÑĢ",
        "Ð´"
      ],
      [
        "Ð»",
        "ÐµÐ¹"
      ],
      [
        "ĠÑĥ",
        "ÑħÐ¾Ð´"
      ],
      [
        "ĠÑģÑĤÐµÐ¿",
        "Ð°Ð½"
      ],
      [
        "ĠÐ¿",
        "ÐµÑģ"
      ],
      [
        "ĠÐ²",
        "ÑģÑĤÐ°Ð»"
      ],
      [
        "ĠÑģÐ°Ð¼",
        "Ð¾Ðµ"
      ],
      [
        "ĠÑģÐ»ÑĥÑĩ",
        "Ð°Ð¹"
      ],
      [
        "ĠÐºÑĢÐ¸Ðº",
        "Ð½ÑĥÐ»"
      ],
      [
        "ĠÑĢÐ°Ð·Ð´ÑĢ",
        "Ð°Ð¶"
      ],
      [
        "ĠÐ¿",
        "Ð°Ð¼"
      ],
      [
        "ÑĢ",
        "Ð°Ð¼"
      ],
      [
        "ĠÑĢÐ¾Ñģ",
        "Ñģ"
      ],
      [
        "ĠÐ·Ð°",
        "ÑģÑĤ"
      ],
      [
        "ĠÐ¶",
        "Ð°ÑĢ"
      ],
      [
        "ĠÐ²",
        "Ð¾ÑĪÐµÐ»"
      ],
      [
        "ĠÐ¿Ð¾",
        "ÑģÑĤÐ°Ð²"
      ],
      [
        "Ð½Ñİ",
        "Ñİ"
      ],
      [
        "ĠÐ¸Ñģ",
        "Ñĩ"
      ],
      [
        "ĠÐ¿Ð¾ÑĢ",
        "ÑıÐ´"
      ],
      [
        "ĠÐ¿Ð¾Ð´",
        "Ð½Ð¸Ð¼"
      ],
      [
        "Ð¸Ð±",
        "Ð¾"
      ],
      [
        "Ð¸Ð²ÑĪ",
        "Ð¸Ð¹"
      ],
      [
        "ĠÐ³ÑĥÐ±",
        "Ñĭ"
      ],
      [
        "ĠÐ½ÐµÐ¾Ð±",
        "ÑħÐ¾Ð´"
      ],
      [
        "ÑĢ",
        "ÐµÑĤ"
      ],
      [
        "Ð°Ð¼",
        "Ð¿"
      ],
      [
        "ĠÐ¾",
        "ÑģÐº"
      ],
      [
        "ĠÐ»",
        "Ð¾Ð¶"
      ],
      [
        "ĠÐ½Ðµ",
        "Ð¾Ð¶Ð¸Ð´"
      ],
      [
        "ĠÐ±Ð¾Ð³",
        "Ð°ÑĤ"
      ],
      [
        "ĠÐ´",
        "Ð¾Ð¶Ð´"
      ],
      [
        "ĠÑĩ",
        "Ð¸ÑģÑĤ"
      ],
      [
        "Ð¸Ð¶",
        "Ðµ"
      ],
      [
        "ĠÐ¸Ð²Ð°Ð½Ð¾Ð²",
        "Ð½Ð°"
      ],
      [
        "Ð´",
        "Ñı"
      ],
      [
        "Ð¾ÑĤ",
        "Ð°Ð»"
      ],
      [
        "ĠÑĤÐ°Ðº",
        "Ð°Ñı"
      ],
      [
        "ĠÐ¿Ð¾",
        "ÑģÑĤÑĥÐ¿"
      ],
      [
        "ĠÑģ",
        "ÑħÐ²Ð°ÑĤ"
      ],
      [
        "ĠÐ²",
        "Ð¸Ð½Ð¾Ð²"
      ],
      [
        "ĠÐºÐ²Ð°ÑĢ",
        "ÑĤÐ¸ÑĢ"
      ],
      [
        "ĠÑģÐ¼",
        "ÐµÑħ"
      ],
      [
        "ĠÑĢÑĥ",
        "ÐºÐ°Ñħ"
      ],
      [
        "ĠÐ³Ð¾ÑģÐ¿Ð¾Ð´",
        "Ð¸Ð½"
      ],
      [
        "ĠÐ±ÑĥÐ¼",
        "Ð°Ð³"
      ],
      [
        "Ðº",
        "Ð°Ðº"
      ],
      [
        "Ð°Ð²",
        "Ð°Ð»"
      ],
      [
        "ĠÐ¿Ð¾Ð´",
        "Ð¾Ð±"
      ],
      [
        "Ð»",
        "ÐµÑĩ"
      ],
      [
        "Ð¾Ð²",
        "Ð½Ð°"
      ],
      [
        "ÑĢ",
        "Ñĥ"
      ],
      [
        "Ð»ÐµÐ½",
        "Ð°"
      ],
      [
        "ĠÐ»Ð°Ñģ",
        "ÐºÐ¾Ð²"
      ],
      [
        "ĠÑģÑĤÑĢÐ°Ð½",
        "Ð½Ð¾"
      ],
      [
        "Ñĭ",
        "ÑģÐ»"
      ],
      [
        "ĠÑĥÐ´",
        "Ð¾Ð²Ð¾Ð»ÑĮ"
      ],
      [
        "ĠÑģÐº",
        "ÑĥÑĩ"
      ],
      [
        "ÐµÑĢ",
        "Ð²"
      ],
      [
        "ĠÐ»",
        "ÐµÑģÑĤ"
      ],
      [
        "ĠÐºÐ°Ðº",
        "ÑĬ"
      ],
      [
        "ĠÑħÐ»",
        "ÐµÐ±"
      ],
      [
        "ĠÐ¾Ð¿",
        "ÑĥÑģÑĤ"
      ],
      [
        "Ðº",
        "Ð½ÑĥÐ»"
      ],
      [
        "ĠÑĤÐ°Ðº",
        "Ð¸Ñħ"
      ],
      [
        "ĠÐ´ÑĢÑĥÐ³",
        "Ð°"
      ],
      [
        "ĠÐ»ÑİÐ±",
        "Ð²Ð¸"
      ],
      [
        "ĠÑĪ",
        "Ð°ÑĢ"
      ],
      [
        "Ð½Ñı",
        "Ñı"
      ],
      [
        "ĠÐ°Ð»",
        "ÐµÑĪ"
      ],
      [
        "Ð¸",
        "ÑĦ"
      ],
      [
        "ĠÐ½ÐµÐ¿",
        "Ð¾Ð´"
      ],
      [
        "ĠÑģÐ°Ð¼",
        "Ð¾Ð¹"
      ],
      [
        "Ð¸",
        "Ð¾Ð½"
      ],
      [
        "ĠÑĤ",
        "Ð°Ð¹"
      ],
      [
        "ĠÑģÑĤ",
        "ÑĥÐ¿"
      ],
      [
        "ĠÐ²Ð¾Ð·",
        "ÑĮ"
      ],
      [
        "ĠÐ¿Ð¾Ð´",
        "ÑĢ"
      ],
      [
        "Ð½",
        "Ð°ÐºÐ¾Ð¼"
      ],
      [
        "ĠÑĥÐ³",
        "ÑĢ"
      ],
      [
        "ÐµÐ½",
        "Ð½ÑĭÐ¼Ð¸"
      ],
      [
        "ĠÐ±Ð¾Ð»",
        "ÐµÐ·"
      ],
      [
        "ĠÐ²Ð¾Ð»",
        "Ð½"
      ],
      [
        "ĠÐ´Ð¼",
        "Ð¸ÑĤÑĢ"
      ],
      [
        "ĠÑĨ",
        "Ð°ÑĢ"
      ],
      [
        "ĠÐ²Ñĭ",
        "ÑģÐº"
      ],
      [
        "ĠÑĤ",
        "ÑĥÑĢ"
      ],
      [
        "ĠÐ¼",
        "Ð°Ð½"
      ],
      [
        "Ðº",
        "Ð¾Ð½"
      ],
      [
        "ĠÐ²",
        "ÑģÑĤ"
      ],
      [
        "Ð¸ÑĩÐµÑģÐº",
        "Ð¸"
      ],
      [
        "Ð»Ð¾Ð²",
        "Ð½Ð°"
      ],
      [
        "ĠÐ·",
        "ÐµÐ»ÐµÐ½"
      ],
      [
        "ĠÑĥÐ»ÑĭÐ±",
        "ÐºÐ¾Ð¹"
      ],
      [
        "ÐµÐ»",
        "ÑģÑı"
      ],
      [
        "ĠÐ¾Ð´",
        "Ð½Ð¸Ð¼"
      ],
      [
        "ĠÑģÐ²Ð¾",
        "Ð¸Ð¼Ð¸"
      ],
      [
        "ĠÐ¾Ð±",
        "Ð¾"
      ],
      [
        "ĠÑįÑĤ",
        "Ð¾Ð¼Ñĥ"
      ],
      [
        "ĠÐ²Ð½",
        "Ð¸Ð·"
      ],
      [
        "ĠÐ¼",
        "ÐµÑģÑĤÐµ"
      ],
      [
        "ĠÑģÑĭ",
        "Ð½"
      ],
      [
        "ĠÐ´Ð¾Ñģ",
        "Ð°Ð´"
      ],
      [
        "ĠÐ¿Ð¾",
        "Ñį"
      ],
      [
        "Ñĭ",
        "ÑģÐº"
      ],
      [
        "ĠÐ²",
        "ÑħÐ¾Ð´"
      ],
      [
        "Ð²",
        "Ð¸Ð³"
      ],
      [
        "ĠÐ²",
        "Ð¸Ð½"
      ],
      [
        "ĠÐ¸",
        "Ð±"
      ],
      [
        "ĠÐ²ÐµÑģ",
        "ÐµÐ»Ð¾"
      ],
      [
        "Ðº",
        "ÑĥÑİ"
      ],
      [
        "ĠÐ»",
        "Ð¾Ð³"
      ],
      [
        "ĠÑģÐ¾Ð²",
        "ÐµÑĤ"
      ],
      [
        "ĠÐ½ÐµÑģ",
        "ÑĩÐ°ÑģÑĤ"
      ],
      [
        "ĠÐ»ÐµÐ³",
        "ÐºÐ¾"
      ],
      [
        "ĠÑħÐ»",
        "Ð¾Ð¿"
      ],
      [
        "Ð°Ðº",
        "ÑĤ"
      ],
      [
        "ĠÐ¶",
        "Ð¸Ð»"
      ],
      [
        "ĠÐ¾ÑģÑĤ",
        "Ð°Ð½"
      ],
      [
        "Ð¿",
        "Ð¾Ð´"
      ],
      [
        "ĠÐ´Ð²",
        "ÐµÑĢ"
      ],
      [
        "ĠÐ¾ÑĤ",
        "ÑĬ"
      ],
      [
        "ĠÑĩÐµÐ»Ð¾Ð²",
        "ÐµÑĩ"
      ],
      [
        "ĠÐ´ÑĢÑĥÐ³",
        "Ð¸Ðµ"
      ],
      [
        "ĠÐ¸Ð·",
        "Ð´"
      ],
      [
        "ĠÑģÑĤÑĢ",
        "Ð°Ð´"
      ],
      [
        "ĠÐ¾ÑĤÑĩ",
        "Ð°Ñı"
      ],
      [
        "ĠÑıÑģ",
        "Ð½Ð¾"
      ],
      [
        "ĠÑĤÐ°Ðº",
        "Ð¾Ð³Ð¾"
      ],
      [
        "ĠÐºÑĢ",
        "ÑĭÐ»ÑĮ"
      ],
      [
        "ĠÐ¾Ñģ",
        "ÑĤÐ¾ÑĢÐ¾Ð¶"
      ],
      [
        "ĠÐ²ÐµÑĢ",
        "Ð¾"
      ],
      [
        "ĠÐº",
        "Ð¸ÑĢ"
      ],
      [
        "ÑĢÐµÐ´",
        "ÐµÐ»"
      ],
      [
        "ĠÐ¿Ð¾Ð»",
        "Ñĥ"
      ],
      [
        "ÑĨ",
        "ÐµÐ½"
      ],
      [
        "ĠÐ¿ÑĢÐ¾",
        "ÑħÐ¾Ð´"
      ],
      [
        "ĠÐ²Ð¾Ñģ",
        "ÑĤÐ¾ÑĢ"
      ],
      [
        "ĠÐ¿",
        "Ð°Ð´"
      ],
      [
        "ĠÑĤ",
        "ÑĥÐ´Ð°"
      ],
      [
        "ĠÑģÐ»ÑĭÑĪ",
        "Ð°Ð»"
      ],
      [
        "ĠÐ¿Ð¾ÑģÐ¿",
        "ÐµÑĪ"
      ],
      [
        "Ð¾Ð»",
        "Ðµ"
      ],
      [
        "ÑĤÐ¾",
        "Ðµ"
      ],
      [
        "ĠÐ»",
        "Ð¾Ð²"
      ],
      [
        "ĠÐ¾ÑģÑĤÐ°Ð½Ð¾Ð²",
        "Ð¸Ð»ÑģÑı"
      ],
      [
        "Ð¸Ð²",
        "Ð°Ð»ÑģÑı"
      ],
      [
        "ĠÐ¼Ð°ÑĢ",
        "ÑĮÑı"
      ],
      [
        "ĠÐ¿Ð¾Ð·Ð²",
        "Ð¾Ð»"
      ],
      [
        "ĠÐ»",
        "Ð¸Ñĩ"
      ],
      [
        "ĠÐ¿Ð¾ÑĤ",
        "ÐµÑĢ"
      ],
      [
        "ĠÐ²Ð¾Ðº",
        "ÑĢÑĥÐ³"
      ],
      [
        "ĠÐ¸ÑģÑĩ",
        "ÐµÐ·"
      ],
      [
        "ÑģÑĤÐ²",
        "Ð¸Ñı"
      ],
      [
        "ĠÐ³Ð¾ÑģÑĥÐ´",
        "Ð°ÑĢ"
      ],
      [
        "ĠÑı",
        "ÐºÐ¾Ð²"
      ],
      [
        "ĠÑĪÐ»Ñı",
        "Ð¿"
      ],
      [
        "ĠÐ¿ÑĢÐ°Ð²",
        "Ð¾"
      ],
      [
        "ĠÑģÐ¾Ñģ",
        "ÐµÐ´"
      ],
      [
        "ĠÐ¿ÑĢÐ¾",
        "Ð¸Ñģ"
      ],
      [
        "ĠÐ±Ð¾Ð»ÑĮÑĪ",
        "Ð¾Ð¹"
      ],
      [
        "Ð¾Ð²",
        "ÑĭÐ¼"
      ],
      [
        "ĠÐ·Ð²",
        "Ð¾Ð½"
      ],
      [
        "Ð¾ÑĢ",
        "ÑĤ"
      ],
      [
        "ĠÐ¶ÐµÐ½",
        "Ð°"
      ],
      [
        "ĠÐ³ÑĢÑĥÐ´",
        "Ð¸"
      ],
      [
        "ĠÑĩÐµÑĤ",
        "Ð²ÐµÑĢ"
      ],
      [
        "ĠÑĢÐ°Ð²",
        "Ð½Ð¾"
      ],
      [
        "Ð½Ð¸Ðº",
        "Ð¾Ð¼"
      ],
      [
        "ĠÐ²Ð°ÑĢÐ²Ð°ÑĢ",
        "Ð°"
      ],
      [
        "ĠÑĤ",
        "Ð¾Ð¿"
      ],
      [
        "ĠÐ¿ÑĢÐ¾",
        "Ñħ"
      ],
      [
        "ĠÐ¿Ð¾Ñģ",
        "ÑĤÐ¾"
      ],
      [
        "ĠÐ¾ÑĤÐ²",
        "Ð¾ÑĢ"
      ],
      [
        "ĠÐ´ÑĢ",
        "ÑĥÐ³Ð¾"
      ],
      [
        "ĠÐ»",
        "Ð¸Ð´"
      ],
      [
        "ĠÐ¿Ð¾Ñĩ",
        "ÑĤ"
      ],
      [
        "ĠÑĤ",
        "Ð¸ÑĪ"
      ],
      [
        "ĠÐ¾Ð±",
        "Ð°"
      ],
      [
        "ĠÐ³",
        "Ð°Ð·"
      ],
      [
        "ÑĮ",
        "ÑĤÐµ"
      ],
      [
        "ĠÑħ",
        "Ð°ÑĢ"
      ],
      [
        "ĠÐºÐ½ÑıÐ·",
        "Ñı"
      ],
      [
        "ĠÐ¿Ð¾Ð½Ð¸Ð¼",
        "Ð°Ñİ"
      ],
      [
        "ĠÑĢ",
        "Ð¾ÑĤ"
      ],
      [
        "ĠÐ»",
        "ÑĥÐ¶"
      ],
      [
        "Ð°ÑĢ",
        "Ð°"
      ],
      [
        "ĠÐºÐ°Ð±",
        "Ð¸Ð½"
      ],
      [
        "ĠÐ¿",
        "Ð°Ð½"
      ],
      [
        "ĠÐµÐ¶",
        "ÐµÐ»Ð¸"
      ],
      [
        "Ð°Ð²ÑĪ",
        "Ð¸Ðµ"
      ],
      [
        "ĠÐ³ÑĢ",
        "ÑĥÐ±"
      ],
      [
        "ĠÐºÐ¾Ð¼",
        "Ð°Ð½Ð´"
      ],
      [
        "ĠÑĤÐµÐ¼",
        "Ð½Ð¾"
      ],
      [
        "ĠÐ½ÐµÐ²",
        "Ð¾Ð·"
      ],
      [
        "ĠÑģÐ»ÑĥÑĩÐ°",
        "Ðµ"
      ],
      [
        "ĠÑĩÐµÑĢ",
        "ÑĤ"
      ],
      [
        "ĠÐ¼ÐµÑģÑĤ",
        "Ð°"
      ],
      [
        "Ð°Ð²ÑĪ",
        "Ð¸Ñħ"
      ],
      [
        "ÑĪ",
        "Ð¸Ð¼"
      ],
      [
        "Ð¾Ð»",
        "Ð²"
      ],
      [
        "ÑĢÐ°",
        "ÑģÑĤ"
      ],
      [
        "ĠÐ¿ÑĢÐ¸ÑĪ",
        "ÐµÐ»"
      ],
      [
        "ĠÐ²Ñģ",
        "ÐµÐ¹"
      ],
      [
        "ĠÑĤÐ¾",
        "Ñĩ"
      ],
      [
        "ĠÐºÐ¾ÑĢ",
        "Ð¾Ð»"
      ],
      [
        "Ð¾Ð·",
        "ÑĢ"
      ],
      [
        "ĠÐ³ÑĢ",
        "ÑıÐ·"
      ],
      [
        "ĠÑģÐ»ÐµÐ·",
        "Ñĭ"
      ],
      [
        "ĠÑģÐ¿",
        "ÑĢÐ°Ð²"
      ],
      [
        "ĠÐ´ÑĥÐ¼",
        "Ð°ÑĤÑĮ"
      ],
      [
        "ĠÐ¾ÑĤ",
        "Ñģ"
      ],
      [
        "ĠÐ¾Ðº",
        "ÑĢÑĥÐ¶"
      ],
      [
        "ĠÐ·Ð°Ð³",
        "Ð¾Ð²Ð¾ÑĢÐ¸Ð»"
      ],
      [
        "ĠÐ²ÐµÑģÑĮ",
        "Ð¼Ð°"
      ],
      [
        "Ðº",
        "Ð¸Ð¼Ð¸"
      ],
      [
        "Ð°Ð¼",
        "ÐµÐ½"
      ],
      [
        "ĠÑĥ",
        "Ð½"
      ],
      [
        "ĠÑģÑĤ",
        "Ð¾Ð»ÑĮ"
      ],
      [
        "ÑıÑĤ",
        "ÑģÑı"
      ],
      [
        "ĠÐ´",
        "Ð¾Ð¿"
      ],
      [
        "Ð²",
        "ÐµÐ´"
      ],
      [
        "ĠÐ»ÑİÐ±",
        "Ð»Ñİ"
      ],
      [
        "ĠÑģÐ¼ÐµÑĢ",
        "ÑĤÐ¸"
      ],
      [
        "Ð°Ð½",
        "Ð½Ð¾Ð¹"
      ],
      [
        "ĠÐ²Ñĭ",
        "Ð¹"
      ],
      [
        "Ð¾Ð²Ð¾ÑĢ",
        "Ð¸Ð»Ð°"
      ],
      [
        "ĠÐ¸Ð´",
        "ÑĤÐ¸"
      ],
      [
        "ĠÐ¿ÑĢ",
        "Ð¸Ð¶"
      ],
      [
        "Ð¸ÑĢ",
        "Ð¾Ð´"
      ],
      [
        "ĠÑģÑĤ",
        "ÑĭÐ´"
      ],
      [
        "ĠÑĥÐ¼",
        "ÐµÑĢ"
      ],
      [
        "ÐµÑĢ",
        "Ð³"
      ],
      [
        "ĠÑģÐ¿",
        "Ð¾ÑģÐ¾Ð±"
      ],
      [
        "ĠÐ¼",
        "Ð½Ð¾Ñİ"
      ],
      [
        "Ñī",
        "Ð¸Ðº"
      ],
      [
        "ĠÐ¸Ð·Ð¼",
        "ÐµÐ½"
      ],
      [
        "ĠÐº",
        "Ð°Ñĩ"
      ],
      [
        "ĠÑģÐ¾Ð±",
        "ÑģÑĤÐ²ÐµÐ½"
      ],
      [
        "ĠÑģÑĤÐ¾",
        "Ð¸ÑĤ"
      ],
      [
        "ĠÐºÐ½Ñı",
        "Ð¶"
      ],
      [
        "ĠÐ¾Ð±",
        "Ðµ"
      ],
      [
        "ĠÐ¾Ð±",
        "Ð¸Ð´"
      ],
      [
        "Ð°Ñİ",
        "ÑģÑĮ"
      ],
      [
        "ĠÐ¼",
        "ÑĥÐ·"
      ],
      [
        "ĠÐ¼",
        "Ð°Ð³"
      ],
      [
        "Ð¾ÑĢ",
        "Ðµ"
      ],
      [
        "ĠÐ³Ð¾Ð²Ð¾ÑĢ",
        "Ñı"
      ],
      [
        "ĠÑĩÐ°Ñģ",
        "Ð¾Ð²"
      ],
      [
        "ĠÑģÐ´ÐµÐ»",
        "Ð°Ð»"
      ],
      [
        "ĠÑħÐ¾Ñĩ",
        "ÐµÑĤ"
      ],
      [
        "ÐµÑģÑĤ",
        "Ð½Ð¾"
      ],
      [
        "ĠÑģÑĤÐ°ÑĢ",
        "ÑĥÑħ"
      ],
      [
        "ÑĥÐ½",
        "Ð´"
      ],
      [
        "ĠÑĥÑģÐ¼",
        "ÐµÑħ"
      ],
      [
        "Ñģ",
        "Ð¸Ð½"
      ],
      [
        "ĠÑģ",
        "Ð¶"
      ],
      [
        "ĠÐ»",
        "Ð¸ÑģÑĤ"
      ],
      [
        "ĠÐ¿Ð¾ÑģÐ¼Ð¾ÑĤÑĢ",
        "ÐµÐ»"
      ],
      [
        "ĠÐ¿ÑĢ",
        "Ðµ"
      ],
      [
        "ĠÐ¾Ñĩ",
        "ÐµÐ²"
      ],
      [
        "ĠÐ¾",
        "ÑĪ"
      ],
      [
        "Ð²",
        "Ð¾"
      ],
      [
        "ĠÐ¾Ð±ÑĬ",
        "ÑıÐ²"
      ],
      [
        "ĠÐ³Ð¾ÑģÐ¿",
        "Ð¾Ð´Ð°"
      ],
      [
        "ĠÐ¼ÑĥÐ¶",
        "Ñĩ"
      ],
      [
        "Ð²",
        "ÑĭÑĩÐ°Ð¹"
      ],
      [
        "ĠÐ²",
        "Ð¸Ð¶Ñĥ"
      ],
      [
        "ĠÑĩÑĢÐµÐ·",
        "Ð²ÑĭÑĩÐ°Ð¹"
      ],
      [
        "ĠÐ²Ñģ",
        "Ð»ÐµÐ´"
      ],
      [
        "ĠÐºÑĢÐ°Ñģ",
        "Ð¸Ð²"
      ],
      [
        "ÑĢ",
        "Ð¾"
      ],
      [
        "Ðº",
        "Ð¸Ð½"
      ],
      [
        "ĠÐ²Ð¾Ð»Ð¾Ñģ",
        "Ñĭ"
      ],
      [
        "ĠÐ¿Ð¾Ðº",
        "Ð»Ð¾Ð½"
      ],
      [
        "Ñĥ",
        "ÐºÐ¸"
      ],
      [
        "ĠÐ¿Ñĥ",
        "ÑģÑĤÑĮ"
      ],
      [
        "ĠÐº",
        "ÑĬ"
      ],
      [
        "ĠÐ¿Ð¾Ð´",
        "Ð±"
      ],
      [
        "ĠÐ½Ð°",
        "ÑģÐ»"
      ],
      [
        "ĠÐ¿ÑĢÐ¾",
        "ÑĦ"
      ],
      [
        "Ñĭ",
        "Ð»Ð°"
      ],
      [
        "Ñı",
        "Ñı"
      ],
      [
        "ĠÑģ",
        "Ð¾Ð¿"
      ],
      [
        "ÑĨ",
        "Ð¸Ñı"
      ],
      [
        "ĠÑģÐ¿Ð¾ÐºÐ¾Ð¹",
        "Ð½Ð¾"
      ],
      [
        "ĠÑĢ",
        "ÑĥÑĩ"
      ],
      [
        "Ð¸ÑĤ",
        "Ñı"
      ],
      [
        "ĠÐ¾Ñħ",
        "Ð¾ÑĤ"
      ],
      [
        "ĠÐ¾ÑĤ",
        "ÑĢ"
      ],
      [
        "ĠÐ·ÐµÐ¼",
        "Ð»Ñİ"
      ],
      [
        "Ðµ",
        "ÐµÑĤÑģÑı"
      ],
      [
        "ĠÐ¿Ð¾Ð½",
        "ÑıÑĤÑĮ"
      ],
      [
        "ĠÑĢ",
        "ÐµÐº"
      ],
      [
        "ĠÐºÐ¾",
        "ÑģÑĤ"
      ],
      [
        "Ñĭ",
        "ÑĤÑĮ"
      ],
      [
        "ĠÐ±ÑĥÐ´",
        "ÑĥÑĤ"
      ],
      [
        "ĠÐ±ÑĢ",
        "Ð¾Ð²"
      ],
      [
        "ĠÑģÐ¼",
        "ÑĥÑĤ"
      ],
      [
        "ĠÑģÐ»",
        "Ð°Ð´"
      ],
      [
        "ĠÐ½Ð°ÑĪ",
        "Ð¸"
      ],
      [
        "ĠÑĥÐ²Ð¸Ð´",
        "ÐµÐ»"
      ],
      [
        "ĠÑģÐ²",
        "ÐµÑĤÐµ"
      ],
      [
        "Ð»",
        "ÐµÐ½Ð¸ÐµÐ¼"
      ],
      [
        "ĠÐ¼",
        "ÐµÑĤ"
      ],
      [
        "ĠÐ¾ÑĢ",
        "ÑĤÑĢ"
      ],
      [
        "ĠÐ¿Ð¾Ðº",
        "Ð¾Ð¹"
      ],
      [
        "ĠÑģÐ½",
        "ÐµÐ³"
      ],
      [
        "ĠÐ¾Ð±ÑĢÐ°Ð·",
        "Ð¾Ð¼"
      ],
      [
        "ĠÐ½Ð°ÑģÑĤÐ¾",
        "ÑıÑī"
      ],
      [
        "ĠÐ°ÑĢ",
        "Ðº"
      ],
      [
        "ĠÐ»ÐµÐ²",
        "Ð¸Ð½"
      ],
      [
        "ĠÐ³ÑĢÐ¾Ð¼",
        "ÐºÐ¾"
      ],
      [
        "ĠÐ´",
        "ÐµÐ´"
      ],
      [
        "ĠÐ¶ÐµÐ½Ñī",
        "Ð¸Ð½Ñĭ"
      ],
      [
        "ÑģÐº",
        "Ð¾Ð¼Ñĥ"
      ],
      [
        "ĠÐºÐ°Ðº",
        "ÑĥÑİ"
      ],
      [
        "ĠÑģÐ»",
        "Ð¾Ð¶"
      ],
      [
        "ĠÑģÐ²Ð¾",
        "ÐµÐ¼Ñĥ"
      ],
      [
        "ĠÐ½Ð¸ÐºÐ¾Ð»",
        "Ð°"
      ],
      [
        "ĠÐ´Ð°Ð»ÑĮ",
        "ÑĪÐµ"
      ],
      [
        "ĠÐºÐ°Ðº",
        "Ð¾Ð³Ð¾"
      ],
      [
        "ÑĥÑİ",
        "ÑĤ"
      ],
      [
        "Ð°Ð¶Ð´",
        "Ñĭ"
      ],
      [
        "Ð½Ð¸ÑĨ",
        "Ñĥ"
      ],
      [
        "ĠÐ±Ð¾Ð³",
        "Ð°"
      ],
      [
        "ÐµÐ½ÑĮ",
        "Ðµ"
      ],
      [
        "ĠÐ¼",
        "Ð¸Ð³"
      ],
      [
        "ĠÐ½Ð°Ñĩ",
        "Ð¸Ð½"
      ],
      [
        "Ñĩ",
        "Ð°ÑĤ"
      ],
      [
        "ĠÐ±Ñĭ",
        "ÑģÑĤÑĢ"
      ],
      [
        "ÑĥÐ´",
        "ÑĢ"
      ],
      [
        "ĠÐ½Ð°Ñĩ",
        "Ð°Ð»ÑĮ"
      ],
      [
        "ĠÐ°Ð»ÐµÐºÑģ",
        "ÐµÐ¹"
      ],
      [
        "ĠÐ¸Ð±",
        "Ð¾"
      ],
      [
        "ĠÐ¿Ð»",
        "Ð°Ðº"
      ],
      [
        "Ð°Ð²ÑĪ",
        "Ð¸ÑģÑĮ"
      ],
      [
        "ĠÐ¼",
        "ÐµÑĢÑĤÐ²"
      ],
      [
        "Ð¾ÑĤ",
        "Ð¾Ð¼"
      ],
      [
        "ĠÐ¾Ð±",
        "ÑıÐ·"
      ],
      [
        "ĠÐ³Ð¾Ð»",
        "Ð¾Ð²Ð°"
      ],
      [
        "ĠÑħÐ¾ÑĤ",
        "ÐµÐ»Ð°"
      ],
      [
        "ĠÐ²ÐµÐ»",
        "Ð¸Ñĩ"
      ],
      [
        "ĠÑħÑĥ",
        "ÑĤÐ¾ÑĢ"
      ],
      [
        "ĠÐ²Ð¿",
        "ÐµÑĩÐ°ÑĤ"
      ],
      [
        "ĠÐ´Ð°Ð»ÐµÐº",
        "Ð¾"
      ],
      [
        "Ð¾Ð»ÑĮ",
        "ÑĤÐµ"
      ],
      [
        "ĠÑĥÐ³",
        "Ð¾Ð»"
      ],
      [
        "ĠÐº",
        "Ð¾Ð·"
      ],
      [
        "ĠÐ¿Ð¾Ð»",
        "ÐºÐ¾Ð²"
      ],
      [
        "ĠÑģÐ°Ð¼",
        "ÑĭÐ¹"
      ],
      [
        "ĠÑģÑĤ",
        "Ð¸Ñħ"
      ],
      [
        "ĠÐºÑĥÑĤ",
        "ÑĥÐ·"
      ],
      [
        "Ð°ÑĤ",
        "Ð°"
      ],
      [
        "ĠÐ²ÐµÑĢÐ¾",
        "ÑıÑĤÐ½Ð¾"
      ],
      [
        "ĠÑĩ",
        "ÐµÐ¼Ñĥ"
      ],
      [
        "ĠÐ´Ð¾Ð»",
        "Ð³"
      ],
      [
        "ĠÐ´",
        "Ð¸Ðº"
      ],
      [
        "ĠÐ¿ÐµÑĢÐµÐ´",
        "Ð¾Ð½Ð¾Ð²"
      ],
      [
        "ĠÐ²",
        "ÑģÑĤÐ°Ð²"
      ],
      [
        "Ð¼",
        "ÐµÑĪ"
      ],
      [
        "ĠÑĢÐ°Ð±",
        "Ð¾Ñĩ"
      ],
      [
        "ĠÐ²Ð½Ñĥ",
        "ÑĤÑĢ"
      ],
      [
        "ĠÑĤ",
        "Ð°ÑĢ"
      ],
      [
        "Ð¾Ñĩ",
        "ÐºÐ¸"
      ],
      [
        "ĠÐ¼Ð¾Ð³",
        "Ð»Ð¸"
      ],
      [
        "ĠÐ½ÐµÐ¿",
        "ÑĢÐµÐ¼ÐµÐ½Ð½Ð¾"
      ],
      [
        "ĠÐ²Ð°Ñģ",
        "Ð¸Ð»ÑĮ"
      ],
      [
        "ĠÑģÑĭ",
        "Ð½Ð°"
      ],
      [
        "ĠÑģ",
        "Ð¾Ð¼Ð½"
      ],
      [
        "ÐµÐ·",
        "Ð°Ð¿"
      ],
      [
        "Ð°Ð»",
        "ÑĬ"
      ],
      [
        "Ð°Ð½",
        "Ð½Ð¾Ðµ"
      ],
      [
        "ĠÐ½Ð°Ñĩ",
        "Ð°Ð»Ð°"
      ],
      [
        "ÑĢ",
        "ÑĭÑĤ"
      ],
      [
        "ĠÐ½ÐµÑĩ",
        "ÐµÐ³Ð¾"
      ],
      [
        "ĠÑĩ",
        "Ð°Ð¹"
      ],
      [
        "ĠÐ²ÐµÑĩÐµÑĢ",
        "Ð¾Ð¼"
      ],
      [
        "Ð¾Ð·",
        "Ð²"
      ],
      [
        "ĠÐ´Ð²",
        "Ð°Ð´ÑĨÐ°ÑĤÑĮ"
      ],
      [
        "ĠÐ¿Ð¾Ð½",
        "ÑıÐ»"
      ],
      [
        "Ð»Ñı",
        "Ñı"
      ],
      [
        "ĠÐ´ÑĥÑĪ",
        "Ðµ"
      ],
      [
        "ĠÐ¿ÑĢÐ¾Ð¸Ð·",
        "Ð½ÐµÑģ"
      ],
      [
        "ÑĪ",
        "Ð°"
      ],
      [
        "ĠÐ²ÐµÑĢ",
        "Ð½Ð¾"
      ],
      [
        "ĠÑĥÐ²",
        "Ð°Ð¶"
      ],
      [
        "Ð¾Ð²Ð¸Ñĩ",
        "Ð°"
      ],
      [
        "ĠÐ²Ð½",
        "ÐµÐ·Ð°Ð¿"
      ],
      [
        "ĠÐº",
        "Ð¾Ð¿"
      ],
      [
        "ÑİÑĪ",
        "ÐºÐ°"
      ],
      [
        "ĠÐ¿",
        "ÑĥÐ³"
      ],
      [
        "ĠÑģÐ¼",
        "ÑĥÑī"
      ],
      [
        "ĠÑģÐºÐ°Ð¶",
        "Ñĥ"
      ],
      [
        "ĠÐºÑĢ",
        "ÑĥÐ¶"
      ],
      [
        "ĠÐ²",
        "Ð»Ð°Ð´"
      ],
      [
        "ĠÑģ",
        "Ð°Ð¿"
      ],
      [
        "ĠÐ½",
        "Ð¾Ð¶"
      ],
      [
        "Ð°Ð²",
        "Ð½Ð¾"
      ],
      [
        "ĠÑĤÑıÐ¶",
        "ÐµÐ»Ð¾"
      ],
      [
        "ĠÐ´Ð°Ð²ÑĭÐ´",
        "Ð¾Ð²"
      ],
      [
        "ĠÐ´ÑĢÑĥÐ³Ð¾",
        "Ðµ"
      ],
      [
        "ĠÑģ",
        "ÑĩÐ°ÑģÑĤÑĮ"
      ],
      [
        "Ñı",
        "Ð½ÑĥÐ»"
      ],
      [
        "Ð°Ð²ÑĪ",
        "ÐµÐ³Ð¾"
      ],
      [
        "ĠÑĥÐ¿",
        "ÑĢ"
      ],
      [
        "ĠÐ²Ð¾Ð·Ð²",
        "ÑĢÐ°Ñī"
      ],
      [
        "ĠÐ½Ðµ",
        "ÑĥÐ¶"
      ],
      [
        "Ñİ",
        "Ð¼"
      ],
      [
        "ÐµÐ¿",
        "ÐµÑĤ"
      ],
      [
        "ĠÐ¿Ð¾Ðº",
        "Ð°Ð·ÑĭÐ²"
      ],
      [
        "ĠÐ¸Ð¼",
        "ÐµÐ»"
      ],
      [
        "ĠÐ½Ð°Ðº",
        "Ð»Ð¾Ð½"
      ],
      [
        "ĠÐ·",
        "Ð°Ð¶"
      ],
      [
        "ĠÐ³",
        "ÑĥÑģ"
      ],
      [
        "ĠÐ³Ð¾Ð»Ð¾Ð²",
        "Ñĭ"
      ],
      [
        "ĠÐ±",
        "ÐµÐ¶"
      ],
      [
        "ĠÑģÑĤ",
        "ÑĥÐ»"
      ],
      [
        "ĠÐ´",
        "ÑıÐ´"
      ],
      [
        "ĠÐ·Ð°Ðº",
        "Ð»ÑİÑĩ"
      ],
      [
        "ĠÐ¿ÐµÑĢ",
        "ÐµÐº"
      ],
      [
        "ĠÐ²Ð¾Ð·",
        "Ð±"
      ],
      [
        "ĠÐ´Ð¾Ð»Ð¶",
        "Ð½Ñĭ"
      ],
      [
        "ĠÑģÐ¸Ð»ÑĮ",
        "Ð½Ð¾"
      ],
      [
        "ĠÐ¿ÑĢ",
        "ÐµÐ»"
      ],
      [
        "ĠÑĥÑģÐ»",
        "ÑĭÑĪ"
      ],
      [
        "ĠÑĢÐ¾ÑģÑĤ",
        "Ð¾Ð²"
      ],
      [
        "ĠÑĤÐ¾Ð±",
        "Ð¾Ð¹"
      ],
      [
        "Ðº",
        "Ð°Ð¼"
      ],
      [
        "ĠÐ½Ð°",
        "Ñħ"
      ],
      [
        "ĠÐ¾Ð´",
        "Ð½Ð¾Ð¼"
      ],
      [
        "ĠÐ½ÐµÐ¾Ð±",
        "ÑĭÐºÐ½Ð¾Ð²"
      ],
      [
        "ĠÐ¿Ð¾Ð´",
        "ÑĬ"
      ],
      [
        "ĠÐ²",
        "Ð¾Ð½"
      ],
      [
        "ÐµÐ½",
        "Ð½Ð¾Ð¼"
      ],
      [
        "ĠÑģ",
        "ÑĥÐ´ÑĮ"
      ],
      [
        "ÑĥÐ¼",
        "Ñı"
      ],
      [
        "ĠÐ³Ð¾ÑģÑĤ",
        "Ð¸Ð½"
      ],
      [
        "ĠÐ±Ð°ÑĢ",
        "ÑĭÑĪ"
      ],
      [
        "ÑĥÑĪ",
        "ÐºÑĥ"
      ],
      [
        "ĠÐ³ÑĢ",
        "ÑĥÑģÑĤ"
      ],
      [
        "ĠÐ¿Ð¾Ð¹",
        "Ð´"
      ],
      [
        "ĠÐ½ÐµÐ²",
        "Ð¾Ð»ÑĮ"
      ],
      [
        "ĠÐ±ÐµÑĢ",
        "ÐµÐ³"
      ],
      [
        "ĠÑģÐ¾Ð»Ð½",
        "ÑĨÐµ"
      ],
      [
        "ĠÐ½ÐµÐ²Ð¾Ð·",
        "Ð¼Ð¾Ð¶"
      ],
      [
        "ĠÑģÐ»",
        "ÐµÐ³"
      ],
      [
        "ĠÐ¿Ð»",
        "Ð¾Ñħ"
      ],
      [
        "ĠÐ½Ð°ÑĤ",
        "Ð°ÑĪÐ°"
      ],
      [
        "Ð¾Ðº",
        "ÑĢ"
      ],
      [
        "ĠÑĤÑĢ",
        "ÐµÑħ"
      ],
      [
        "ĠÑģÑĤÐ°ÑĢ",
        "ÑĭÐ¹"
      ],
      [
        "ĠÐ¿Ð¾Ð³",
        "Ð»ÑıÐ´"
      ],
      [
        "ĠÐ¸Ð´",
        "ÐµÑĤ"
      ],
      [
        "ĠÐ¾ÑĤÐº",
        "Ð°Ð·"
      ],
      [
        "ĠÐ³ÑĥÐ±",
        "ÐµÑĢ"
      ],
      [
        "ĠÐ½Ð°Ð¼",
        "ÐµÑĢ"
      ],
      [
        "ĠÐ¿",
        "ÑĤ"
      ],
      [
        "ÑģÑı",
        "ÑĤ"
      ],
      [
        "Ð¾Ð»",
        "ÐµÑĤ"
      ],
      [
        "ĠÐ¼Ð¸Ð½ÑĥÑĤ",
        "Ñĭ"
      ],
      [
        "ĠÐ¼ÐµÑĢ",
        "Ðµ"
      ],
      [
        "ĠÐ¿",
        "ÑĭÑĤ"
      ],
      [
        "ĠÑģÑĤÐ¾Ð»",
        "Ð°"
      ],
      [
        "ĠÑģ",
        "ÑħÐ¾Ð´"
      ],
      [
        "ĠÑħÐ¾ÑĤ",
        "Ð¸ÑĤÐµ"
      ],
      [
        "Ð»",
        "ÑĭÐ¹"
      ],
      [
        "ĠÐ»",
        "ÑĮ"
      ],
      [
        "ĠÑģÑĤ",
        "Ð°Ð²"
      ],
      [
        "ĠÐ¿Ð¾Ð´",
        "Ð´"
      ],
      [
        "ĠÑģÑĤ",
        "ÑĢÐµÐ¼"
      ],
      [
        "ĠÐ¿Ð»",
        "Ð¾ÑĤ"
      ],
      [
        "Ð»ÐµÐ½",
        "Ð½ÑĭÐ¹"
      ],
      [
        "ĠÐ¿Ð¾Ð¿",
        "ÑĢ"
      ],
      [
        "Ð½Ðµ",
        "ÑĪ"
      ],
      [
        "ĠÐºÐ¾",
        "Ðµ"
      ],
      [
        "ĠÑģÑĤÐ¾",
        "ÑıÐ»Ð°"
      ],
      [
        "ĠÐ¿Ð¾ÐºÐ°Ð·",
        "Ð°Ð»Ð¾ÑģÑĮ"
      ],
      [
        "ĠÐ½ÐµÐ½",
        "Ð°Ð²"
      ],
      [
        "ĠÐ¾Ð¶",
        "Ð¸Ð²"
      ],
      [
        "ĠÑģÑĥÑīÐµ",
        "ÑģÑĤÐ²"
      ],
      [
        "ĠÐ¿ÐµÑĢ",
        "ÐµÐ¿"
      ],
      [
        "ĠÐ¿Ð»Ð°ÑĤÑĮ",
        "Ðµ"
      ],
      [
        "ĠÑģ",
        "Ð¾ÑģÑĤÐ°Ð²"
      ],
      [
        "ĠÐ´ÑĢÑĥÐ³",
        "Ð¾Ð³Ð¾"
      ],
      [
        "ĠÑĥÑĤÑĢ",
        "Ð¾Ð¼"
      ],
      [
        "Ð¾Ð»",
        "Ð¾Ñģ"
      ],
      [
        "ĠÑĤÑĢ",
        "ÐµÑĤÑĮ"
      ],
      [
        "ĠÐ·Ð°Ð¿",
        "Ð°Ñħ"
      ],
      [
        "ĠÐ¸ÑģÐº",
        "ÑĢ"
      ],
      [
        "ĠÐ½ÐµÐ±",
        "Ð¾Ð»ÑĮ"
      ],
      [
        "ĠÐ±ÐµÑģÐ¿",
        "Ð¾ÐºÐ¾Ð¹"
      ],
      [
        "ÑıÐ»",
        "Ð¾"
      ],
      [
        "ĠÐ»ÑİÐ±",
        "Ð¸ÑĤ"
      ],
      [
        "ĠÐ¼Ð¾",
        "Ð¸Ñħ"
      ],
      [
        "ĠÐ¿Ð¾Ð´",
        "ÑħÐ¾Ð´"
      ],
      [
        "ĠÑģÑĤÑĢ",
        "Ð¾Ð³Ð¾"
      ],
      [
        "ĠÐº",
        "Ð°"
      ],
      [
        "Ð½Ð¸ÑĨ",
        "Ðµ"
      ],
      [
        "ĠÑĤÑĢ",
        "Ð°Ð²"
      ],
      [
        "Ð¾Ð´",
        "Ð½Ð¾"
      ],
      [
        "ĠÐ±Ð»Ð°Ð³Ð¾",
        "ÑĢÐ¾Ð´"
      ],
      [
        "ĠÑĢÐ¾Ð¼",
        "Ð°Ð½"
      ],
      [
        "ĠÐ¾ÑĪ",
        "Ð¸Ð±"
      ],
      [
        "Ð¾Ð»",
        "Ð¾Ð¶"
      ],
      [
        "ĠÐ¾ÑĤÑĩ",
        "ÐµÐ³Ð¾"
      ],
      [
        "Ð´",
        "Ñĭ"
      ],
      [
        "ĠÑĥÑģÐ¿",
        "Ð¾ÐºÐ¾"
      ],
      [
        "ĠÐ¿Ð¾ÑĩÑĥÐ²ÑģÑĤÐ²",
        "Ð¾Ð²Ð°Ð»"
      ],
      [
        "Ð¸ÑĢ",
        "Ð°Ñı"
      ],
      [
        "ÐµÑĢ",
        "Ñĥ"
      ],
      [
        "ĠÑģÑĤÑĢÐ°ÑĪ",
        "Ð½Ð¾"
      ],
      [
        "Ð¾Ðº",
        "Ð°"
      ],
      [
        "ĠÐ¿Ð¾Ð´",
        "Ð¾Ð·ÑĢ"
      ],
      [
        "Ð°ÑİÑī",
        "Ð¸Ð¹"
      ],
      [
        "Ġ",
        "2"
      ],
      [
        "ĠÐ²",
        "Ð»"
      ],
      [
        "ĠÐº",
        "ÑĥÑħ"
      ],
      [
        "ĠÑĤÑĢ",
        "ÑĥÐ±"
      ],
      [
        "ĠÑĤÐ°Ðº",
        "Ð¶Ðµ"
      ],
      [
        "ĠÐ»Ð°Ð´",
        "Ð¾Ð½"
      ],
      [
        "ĠÐº",
        "ÑĥÑĩ"
      ],
      [
        "Ð¸Ð»",
        "ÑĬ"
      ],
      [
        "Ð¸ÑĨ",
        "ÐµÐ¹"
      ],
      [
        "ĠÑĦ",
        "Ð¾Ð¼"
      ],
      [
        "ĠÐ½Ð°ÑĪ",
        "ÐµÐ³Ð¾"
      ],
      [
        "Ð¾Ð²",
        "Ð°Ð»ÑģÑı"
      ],
      [
        "ÐµÐ´",
        "Ñĥ"
      ],
      [
        "Ð¾Ð½",
        "Ðµ"
      ],
      [
        "ĠÑĢ",
        "Ð¾Ð±"
      ],
      [
        "ĠÑģ",
        "Ð°Ð½"
      ],
      [
        "Ð¼",
        "Ð°ÑĢ"
      ],
      [
        "Ð¾Ñĩ",
        "ÐºÑĥ"
      ],
      [
        "Ð²ÐµÑĢ",
        "Ñħ"
      ],
      [
        "ĠÑĤÐ¾ÑĢ",
        "Ð¶Ðµ"
      ],
      [
        "ĠÐ´ÐµÑģÑı",
        "ÑĤÑĮ"
      ],
      [
        "Ð¾ÑĢ",
        "Ð±"
      ],
      [
        "ĠÐ´ÑĥÐ¼",
        "Ð°Ð»Ð°"
      ],
      [
        "ĠÑĥÐ¶Ð°Ñģ",
        "Ð½Ð¾"
      ],
      [
        "ĠÑĢÐ°Ð²",
        "Ð½"
      ],
      [
        "ĠÐ½Ð°ÑģÑĤ",
        "Ð°ÑģÑĮ"
      ],
      [
        "Ð°Ñģ",
        "Ñģ"
      ],
      [
        "Ð¾Ð²",
        "Ð°Ð»Ð¾"
      ],
      [
        "ĠÐ°",
        "Ð³"
      ],
      [
        "Ð¸",
        "Ð½Ð¾"
      ],
      [
        "ĠÐ´ÑĥÑĪ",
        "Ð¸"
      ],
      [
        "ĠÐ»",
        "ÐµÐ½"
      ],
      [
        "ĠÐ¿Ð¾Ð¶Ð°Ð»ÑĥÐ¹",
        "ÑģÑĤÐ°"
      ],
      [
        "Ñĥ",
        "Ð»Ð°"
      ],
      [
        "ÑĪ",
        "ÑĥÑİ"
      ],
      [
        "ĠÐ±",
        "Ð°Ð·"
      ],
      [
        "Ð°Ð½",
        "Ð¸Ð¹"
      ],
      [
        "ĠÐ¿Ð¾Ð¼",
        "Ð¾Ñī"
      ],
      [
        "ĠÑĩ",
        "ÐµÑģÑĤ"
      ],
      [
        "ÑĭÐ²",
        "Ð°Ð»Ð°"
      ],
      [
        "ĠÐ·Ð°Ð½",
        "ÑıÑĤ"
      ],
      [
        "ĠÐ¾ÑĩÐµÐ²",
        "Ð¸Ð´Ð½Ð¾"
      ],
      [
        "Ð»",
        "Ð¾ÑģÑĮ"
      ],
      [
        "Ð¾ÑĤ",
        "Ñĥ"
      ],
      [
        "ĠÑģÐ»ÐµÐ³",
        "ÐºÐ°"
      ],
      [
        "ĠÑģÐ²",
        "ÐµÐ¶"
      ],
      [
        "ĠÑĥÐ´",
        "ÐµÑĢÐ¶"
      ],
      [
        "ĠÐ²ÑĭÑĪ",
        "Ð»Ð°"
      ],
      [
        "ĠÐ³Ð»",
        "ÑĥÑħ"
      ],
      [
        "Ð¾ÐºÐ¾",
        "ÑĦ"
      ],
      [
        "ĠÐ½ÐµÐ¿Ð¾Ð´",
        "Ð²Ð¸Ð¶"
      ],
      [
        "ĠÐ²Ð¾",
        "Ð¾Ð±ÑĢÐ°Ð¶"
      ],
      [
        "Ð°Ð²",
        "Ð»Ð¸Ð²"
      ],
      [
        "ĠÐ¾Ñī",
        "ÑĥÑī"
      ],
      [
        "ĠÐ",
        "¹"
      ],
      [
        "ĠÐ¾Ð±",
        "ÐµÑī"
      ],
      [
        "ĠÐ³ÑĢ",
        "Ð¾Ð·"
      ],
      [
        "ĠÐ²ÑģÑı",
        "ÐºÐ¸Ð¹"
      ],
      [
        "ĠÑĤÐµÑĢ",
        "Ð¿"
      ],
      [
        "ÑĤ",
        "Ð°Ð»"
      ],
      [
        "Ñİ",
        "ÑģÑĮ"
      ],
      [
        "ĠÐ¿ÑĢ",
        "Ð¾ÐºÐ¾ÑĦ"
      ],
      [
        "Ð¸ÑĤ",
        "Ð°Ð½"
      ],
      [
        "ĠÑģÐ¿",
        "ÐµÑĪ"
      ],
      [
        "ĠÐ¾Ðº",
        "Ð¾Ð½Ñĩ"
      ],
      [
        "ĠÐ·Ð°Ð¿",
        "Ð»"
      ],
      [
        "ĠÑģÐ»Ð¾Ð²",
        "Ð¾Ð¼"
      ],
      [
        "ĠÑģ",
        "Ð¾Ð´"
      ],
      [
        "Ð½Ð°",
        "ÑĩÐµ"
      ],
      [
        "ÐµÐ½ÑĮ",
        "ÐºÐ¾Ð¹"
      ],
      [
        "ĠÑĥÐº",
        "Ð°Ð·"
      ],
      [
        "ĠÐ³Ð¾Ð»Ð¾Ð²",
[...]
